#version: 0.2
h e
Ġ t
Ġ a
Ġ s
Ġ w
n d
Ġt he
e d
Ġa nd
Ġt o
Ġ b
i n
Ġ h
Ġw a
r e
o u
Ġ f
i t
Ġ l
Ġ c
Ġ d
e r
Ġ he
Ġ m
Ġ p
Ġwa s
o m
Ġ T
Ġ o
a y
a r
i s
in g
i l
Ġ g
i d
a t
e n
Ġ n
Ġs a
Ġh a
Ġ S
ĠT he
a n
i m
o r
o n
Ġ it
Ġt h
l l
l e
Ġ H
Ġhe r
o t
e t
i r
ĠS he
e s
ĠH e
Ġ in
v er
u t
o w
ĠThe y
c k
Ġ e
Ġ u
l d
Ġ y
o o
Ġsa id
i g
Ġ "
il y
Ġ r
Ġb e
a m
Ġs t
Ġ I
c e
k e
Ġs he
v e
p p
it h
Ġw ith
L ily
O n
Ġo n
Ġy ou
Ġo f
k ed
r i
Ġs o
n t
Ġh is
Ġp l
a d
ver y
Ġd ay
Ġth at
Ġu p
Ġpl ay
Ġha d
s t
Ġthe y
Ġw e
Ġ Lily
Ġm om
Ġf or
Ġ B
e l
u n
ou ld
' s
m y
T he
Ġl i
c h
en t
Ġha pp
Ġwa nt
it t
Ġs h
ou t
he r
Ġd o
l y
Ġn ot
om e
s e
Ġ very
ou nd
e nd
a ll
Ġw h
im e
itt le
Ġ k
Ġt ime
Ġl ittle
a l
Ġthe re
Ġn e
h t
Ġ M
Ġ re
Ġhapp y
Ġs m
Ġb ig
Ġ is
Ġ Ċ
ĠI t
Ġb ut
a ck
Ġa n
Ġsa w
ri end
. "
Ġf riend
r y
Ġa s
r a
On e
id e
a ke
' t
! "
u g
Ġl oo
v ed
t er
Ġwe re
o re
On ce
Ġl o
e c
Ġh im
Ġto o
Ġg o
Ġb o
Ġs e
ir l
Ġa re
Ġ j
ĠT im
ar d
Ġwant ed
il l
Ġg irl
Ġup on
Ġthe m
Ġ out
Ġa t
u r
i nd
Ġthe ir
f u
Ġs p
w ay
Ġ A
Ġsm il
Ġd id
Ġc ould
he n
Ġha ve
a in
ar t
Ġe x
he d
r om
Ġw ent
Ġa r
i c
Ġc an
Ġ J
l p
fu l
ĠB en
oo d
? "
h ing
Ġfriend s
Ġn am
ig ht
Ġa ll
Ġhe lp
Ġk n
u m
on e
ar k
Ġb ack
Ġs ay
Y ou
Ġf un
Ġc l
ĠT om
a re
Ġn o
Ġl e
o p
Ġsmil ed
Ġs c
Ġnam ed
Ġa l
ou g
Ġlo ved
s ide
el t
Ġ One
Ġm an
Ġas ked
i ck
Ġto y
Ġli ke
Ġf e
Ġf elt
Ġloo ked
Ġs ome
Ġar ound
Ġse e
Ġm e
am e
om et
Ġ W
Ġr o
Ġb r
u re
ĠTim my
Ġb ir
g et
i ce
Ġbo y
Ġw ould
Ġst art
on g
Ã ¢
â Ĥ
âĤ ¬
s s
Ġbir d
Ġs omet
Ġf a
d d
ing s
Ġa g
Ġw or
Ġwh at
ad e
Ġm ake
k ing
, "
i e
ĠB ut
ow n
Ġt re
Ġr an
get her
Ġ You
Ġa way
a g
ar ed
Ġsay s
Ġstart ed
ou d
i f
Ġm ade
Ġc ar
Ġsomet hing
Ġto gether
it ed
t her
Ġp ark
Ġc o
Ġsa d
Ġo ther
Ġne w
Ġex c
Ġp ut
Ġf rom
Ġp r
e ll
Ġ L
Ġl a
Ġh ug
b le
Ġm u
oo k
a ch
Ġag ain
Ġh ome
Ġw hen
Ġg ood
h at
e p
Ġwh o
es t
ri ed
Ġf ound
Ġf l
Ġthe n
Ġc h
Ġd ec
pp ed
Ġwa l
a s
Ġg et
q u
Ġplay ing
oug ht
p l
Ġ E
all y
Ġs w
ou s
n n
Ġth ings
Ġexc ited
Ġli ked
Ġg ot
u ck
r o
id ed
Ġdec ided
Ġb l
a ve
Ġc ame
Ġe very
ar a
Ġyou r
Ġ D
ĠM om
a x
Ġ v
Ġsc ared
u st
Ġon e
Ġdo g
Ġd own
ou se
n y
Ġf ind
Ġc are
Ġbe c
is t
Ġth an
Ġfe el
a p
u e
u dd
nn a
Ġd ad
Ġa b
The y
Ġm y
Ġloo k
Ġ ke
ou r
Ġw ill
ar n
Ġg r
u s
nd er
Ġg ra
way s
es s
Ġdid n
Ġp o
f e
Ġal ways
Ġtoo k
Ġab out
an t
b b
Ġl ot
Ġmom my
Ġtoy s
Ġkn e
er s
is e
it e
Ġout side
Ġtre e
Ġth ought
Ġb all
Ġ F
Ġm ore
ec i
ĠS am
en ed
c hed
Ġt a
Ġo ld
Ġh o
Ġle arn
re t
Ġin t
g ed
Ġkn ow
Ġla ug
Ġt ake
eci al
Ġsp ecial
Ġs or
Ġc at
udd en
Ġkne w
ĠM ax
i ve
i a
Ġp e
Ġan y
udden ly
Ġt r
f ter
Ġh ow
m a
Ġsh ow
in k
Ġsor ry
Ġt w
B ut
Ġmu ch
a u
is h
Ġr un
a nd
Ġha nd
Ġs l
v en
Ġh ouse
Ġo r
Ġo p
Ġs k
Ġm o
Ġcl o
Ġs un
Ġint o
Ġt ried
Ġin side
at e
Ġto ld
Ġwa ter
Ġth is
Ġ en
an k
Ġ if
Ġpr oud
um p
Ġ qu
Ġo ver
Ġcould n
T om
d y
Ġg ave
Ġhe ard
ĠS ara
Ġne ver
b y
Ġe ach
a ce
Ġro om
t y
Ġex pl
ĠE very
Ġe at
ĠW e
ot her
au se
Ġp ick
i on
Ġp ret
ĠA nna
M om
Ġplay ed
g e
et ter
Ġj ust
a k
Ġhug ged
Ġg re
he re
Ġof f
Ġc om
Ġwa t
ot h
Ġbo x
Ġn ice
' m
Ġst r
Ġbec ause
Ġne ed
il e
Ġman y
Ġf o
u c
Ġj o
Ġbe ar
Ġsm all
i z
Ġb u
v ing
Ġl ong
in e
g ry
im al
or t
Ġan imal
Ġs n
oug h
Ġt ry
Ġu nt
il d
s el
ur t
Ġunt il
ĠJ ack
s ed
Ġk ind
Ġlearn ed
Ġ im
Ġlo ve
Ġb etter
f t
Ġfl ow
Ġc all
Ġd on
H e
ĠJ o
Ġe nd
Ġa d
u ll
Ġb est
v ent
Y es
ar s
ur p
ad y
e m
re am
a ut
ur n
ĠM ia
Ġc le
ĠA nd
v es
Å ĵ
ard en
Ġ C
Ġg arden
Ġfa st
Ġcare ful
b er
Ġbe aut
ll y
T h
Ġe ven
p t
Ġb ra
i es
Ġthan ked
Ġf i
ĠS o
Ġc he
Ġlaug hed
Ġsk y
Ġb y
I t
ĠH er
Ġj ump
Ġg l
a se
Ġt e
Ġl oud
sel f
in y
Ġwa y
w n
Ġbeaut i
Ġc ome
le w
Ġl ist
Ġw o
Ġbeauti ful
Ġh ard
Ġlot s
Ġr a
Ġst ill
Ġf am
Ġanimal s
Ġ Ã¢
Ġh urt
Ġu nder
ĠThe n
ec t
Ġst ay
n ing
Ġl et
c t
Ġb oth
Ġc u
ĠH is
he s
b e
Ġsa fe
ĠF rom
oo l
re e
Ġco l
Ġtw o
Ġb ad
Ġb ook
Ġim p
op le
Ġre m
an e
Ġli ved
k ay
o ck
uc y
Ġwal ked
T im
a st
urp r
Ġbra ve
Ġsh ould
Ġit s
o b
is hed
Ġan gry
Ġs urpr
Ġfam ily
re ss
ig h
W hen
Ġpe ople
Ġf lew
Ġcall ed
N o
Ġr ed
Ġst or
i p
Ġso on
Ġf in
h n
L et
l ed
Ġke pt
Ġf ore
f ore
Ġd an
Ġsh are
Ġf ly
x t
is ed
dd ed
Ġp ic
âĤ¬ â
Ġdo or
Ġgo ing
Ġ P
ĠW hen
Ġpret ty
Ġke ep
Ġn ow
Ġro ck
Ġcle an
Ġd ra
ar y
Ġad vent
um my
Ġno ise
Ġop ened
Ġsh iny
ag e
Ġexpl ore
Ġw ind
Ġdo ll
Ġc ry
Ġc on
Ġ ide
Ġbe fore
i ed
B en
il ly
Ġre al
Ġst o
s o
W hat
Ġgr ound
Ġal so
le s
Ġt urn
Ħ ¢
âĤ¬â Ħ¢
Ġe y
T hat
Ġf ar
Ġide a
Ġf r
o on
Ġno dded
Ġcol or
Ġwa r
o y
Ġfeel ing
Ġu n
Ġpick ed
im b
t h
ĠL ucy
Ġne xt
Ġwal king
t hing
t ure
ĠD ad
Ġcl imb
Ġha s
u ch
Ġm a
Ġth r
Ġwh ile
e et
Ġb ed
Ġadvent ure
Ġsmil e
k es
ay be
Th ank
ic ed
g er
i ous
Ġ G
Ġbe ing
Ġd if
Ġw r
Ġclo s
Ġf ood
j oy
t ed
Ġg ive
Ġpic ture
Ġth ink
ĠS p
Ġloo king
Ġd el
f f
a c
Ġtr uck
Ġwa it
Ġey es
ug ht
Ġto w
t ing
Ġre pl
Ġbr o
Ġsto pped
Ġlist en
Ġa fter
Ġb re
Ġo wn
Ġv o
Ġwal k
em ber
ĠS uddenly
Ġwo nder
Ġgre at
Ġhand s
S uddenly
Ġsh out
Ġhe ad
Ġen joy
Ġimp ort
Ġflow ers
Ġe ver
Ġnot iced
Ġbl ue
Ġfore st
bb it
S he
iz ed
Ġa pp
ir st
Ġne ar
Ġqu ick
Ġd is
Ġd e
a ble
Ġimport ant
Ġrem ember
Ġf ish
ll ow
Ġs ound
Ġsl ide
Ġu s
ma z
Ġrepl ied
Ġa maz
Ġa c
le ase
Ġwor k
Ġwat ch
Ġr ain
Ġshow ed
Ġra bbit
Ġo kay
g an
Ġt al
by e
fe re
bb ed
Ġas k
Ġdif fere
Ġme an
Ġr ight
Ġy e
d ay
Ġwat ched
Ġbr ight
Ġfo llow
W e
ĠSp ot
S o
Ġevery one
Ġstr ong
Ġs qu
Ġst ick
Ġu se
Ġbe en
Ġm or
Ġvo ice
Ġt ra
er ed
Ġquick ly
at h
Ġ our
Ġw here
Ġy ell
Ġ N
ĠMom my
A nna
Ġdiffere nt
ĠB ob
Ġch ild
Ġcu ri
Ġbo at
n g
Ġs ure
ĠS ue
Ġbec ame
Ġgood bye
Ġfa ce
Ġpl ace
an ge
Ġh op
Ġh igh
Ġa m
L ook
a ught
Ġ R
Ġclos er
Ġst ore
Ġwar m
Ġdo es
Ġc r
Ġd ress
S ara
un ny
Ġcuri ous
Ġm ag
il a
J o
Ġc ook
Ġbe l
Ġfor g
Ġt ell
Ġfa v
nd ma
a ss
ou nt
c o
Ġth ree
le ep
Ġn ight
Ġop en
Ġc ake
m ore
Ġhe re
Ġany more
Ġbl ock
Ġf irst
it c
Ġb us
Ġp ull
is s
a ched
H er
ir ed
Ġbut ter
Ġ z
im es
ĠT h
or n
Ġsw eet
Ġp ain
Ġk id
Ġgra bbed
C an
Ġp u
is y
Ġon ly
Ġm on
Ġle a
Ġfe ll
Ġb a
Ġr u
Ġcon t
Ġbird s
Ġjump ed
Ġgl ad
Ġb it
Ġsa nd
itc hen
Ġk itchen
Ġhelp ed
Ġse es
Ġfi re
Ġp er
Ġfl o
Ġst op
ĠSara h
Ġhapp ened
Ġs ing
Ġgra ss
Ġb unny
Ġshout ed
Ġstor y
ĠL et
Ġt ri
nt s
Ġd r
a ir
A fter
ĠJ ane
pp y
Ġre ached
Ġbe h
Ġreal ized
Ġy ummy
Ġbr other
ĠD o
Ġl ady
Ġm um
Ġha ving
Ġpr in
in s
Ġfav or
ĠA s
' re
Ġm ess
Ġfavor ite
Ġdra w
Ġc re
Ġre st
Ġthr ough
Ġg ame
Ġh at
Ġat e
Ġl ess
Ġunder st
ak es
ĠEvery one
Ġso ft
Ġp are
z y
Ġth ing
Ġre ally
at her
Ġre ady
Mom my
Ġbe gan
w here
Ġpret end
ĠC an
Ġwor ld
ĠJo e
ĠT hat
Ġlook s
k en
Ġhim self
Ġmag ic
fu lly
Ġp ap
Ġd one
Ġbutter f
Ġma king
Ġc ut
Ġcom ing
Ġd uck
at er
Ġpo nd
Ġkid s
Ġwa ved
Ġwh y
Ġp rom
Ġt ired
Ġf ro
Ġfi x
o lly
st er
Ġm ouse
Ġwor ry
Ġp art
Ġcar s
Ġst e
Ġdel ic
Ġnam e
Ġflow er
ig n
Ġf ill
W ow
a isy
Ġto uch
ed dy
Ġfun ny
Ġcat ch
b o
Ġu sed
s h
Ġse en
Ġha ir
ĠJo hn
Ġta st
i ent
Ġto p
Ġpare nts
re l
Ġan other
Ġho ld
Ġho pped
Ġc ried
i ver
u ff
one y
m er
Ġdo ing
Ġc ool
Ġblock s
h y
" .
Ġp us
Ġsurpr ise
Ġl ight
Ġgre en
A s
Ġthan k
Ġless on
Tim my
at ion
Ġre ad
Ġflo or
Ġd in
Ġg i
Ġw ood
Ġf ull
D on
Ġd ri
ard s
Ġtre es
Ġrun ning
Ġwind ow
Ġwor ked
Ġye ars
Ġc ra
Ġd ro
Ġ -
Ġd ark
Ġbeh ind
Ġli kes
Ġsm ell
Ġsp ot
Ġw ished
Ġpap er
u ed
Ġyell ow
and y
Ġb ow
u l
re n
Ġsw im
Jo hn
Ġhapp ily
Ġb ag
Ġs at
Ġsh o
S am
Ġs leep
ar ing
Ġsurpr ised
el y
Ġfro g
Ġbutterf ly
i ke
Ġsw ing
Ġs et
Ġcare fully
ĠI n
Ġsl ow
Ġremember ed
Ġlo st
Ġco ld
Ġhe ld
ell o
H ello
Ġho le
Ġ ice
Ġlaug h
re w
Ġneed ed
Ġbu y
Ġper f
Ġle ft
on s
Ġmo ve
re ed
c ess
Ġany thing
Ġd ream
Ġt all
Ġenjoy ed
Ġwr ong
Ġar ri
u it
Ġhe ar
Ġfa ir
Ġa ir
Ġfollow ed
in ally
Ġbook s
ro ss
Ġe l
Ġchild ren
Ġh un
Ġdelic ious
Ġta ble
Ġfin ished
Ġcont in
Ġfriend ly
Ġd ir
Ġh ot
Ġsn ow
Ġher self
d s
l f
ĠA fter
Ġh ill
en s
Ġunderst and
Ġp lease
Ġclo se
in ed
Ġh id
Ġarri ved
Ġc ast
Ġel se
Ġar m
Ġba by
Ġwonder ful
Ġm ight
Ġg ent
Ġt ight
Ġforg ot
s p
ie ld
Ġb ug
ĠS ally
Ġcolor s
Ġre l
Ġbu ild
Ġbro ken
ĠD aisy
Ġa ble
Ġg one
a v
n er
ĠN ow
ĠBen ny
ĠL ila
Ġy es
at ter
Ġs ong
The n
i ch
Ġwa ll
Ġsqu ir
Ġfill ed
Ġag reed
Ġsome one
J ack
Ġcontin ued
ro om
Ġcre at
as ure
' ll
Ġc ount
Ġwant s
Ġsquir rel
ĠE m
Ġp ink
Ġlea ves
as k
Ġen ough
e y
ĠThe re
ĠTom my
Ġli on
F rom
am a
e e
O K
Ġmor ning
Ġv is
Ġmom ent
Ġfin ally
Ġget ting
Ġstay ed
Ġcook ies
Ġbre ak
a pp
Ġpo in
an ce
Ġbe ach
Ġ K
Ġfe w
ĠM aybe
Ġsc ary
Ġf ight
Ġsomet imes
r ow
as h
ri es
c ed
r ed
Ġturn ed
Ġhun gry
Ġf all
Ġdin ner
g on
Ġm other
Ġgra ndma
Ġj u
Ġw et
ĠW hat
Ġamaz ing
a pped
Ġtry ing
H is
Ġc ream
Ġdad dy
Ġperf ect
Ġp i
Ġm akes
Ġcast le
Ġother s
A t
Ġclimb ed
ke y
ou p
ĠTh is
Th is
Ġpicture s
ic y
Ġcom p
am p
Ġtal k
Ġm et
Ġmu s
Ġwh ite
o om
Ġlist ened
Ġsmil es
m an
Ġf ur
Ġball oon
Ġcl ot
or ing
ĠG ra
Ġal one
Ġclot hes
Ġpo l
ĠB illy
l c
Ġta il
Ġjo y
at ed
r ot
O h
Ġpu ppy
Ġsp l
en ce
Ġm ar
Ġwas n
Ġbr ought
Ġde ep
Ġevery thing
Ġp et
Ġse ar
Ġstr ange
is ter
ct or
Ġsp ark
d er
Ġs it
Ġwood s
Ġgr ow
Ġpull ed
l ing
Ġsa il
ĠT o
ot t
Ġw on
Ġpl an
Ġr ide
et er
Ġask s
Ġfo x
Ġp ie
Ġdan ger
Ġtre at
uff y
Ġro ll
Ġvis it
ĠA my
o s
Ġle ave
m ed
ĠJ en
Ġp at
uck y
Ġmus ic
Ġamaz ed
Ġwa ited
Ġt eddy
Ġh ide
m e
an g
e ver
Ġtow ards
M ax
ow er
Ġf ield
Ġla nd
Ġp re
Ġfly ing
z z
Ġp en
Ġs illy
Ġsh ared
Ġrun s
ain ed
Ġown er
Ġcl oud
ap e
Ġli ving
ug g
Ġqu i
am es
Ġjo b
Ġprom ised
O kay
Ġbel ie
ig g
Ġmor al
Ġg u
Ġs ide
g s
or m
Ġl ake
o l
Ġp a
Ġthink s
M aybe
ck et
op e
Ġpain t
Ġs ec
th y
Ġs ister
u ally
Ġpart y
Ġqui et
is es
Ġmu st
c le
Ġr ace
ĠJ im
av y
Ġm oney
Ġwe ar
s w
Ġwor ried
as ed
u p
Ġan sw
un ch
Ġslow ly
Ġp ot
ec es
Ġcolor ful
Ġfast er
Ġgr ate
Ġo w
Ġdan ce
Ġpi eces
Ġbr an
Ġb ott
Ġwe lc
Ġbro ke
Ġcu p
i x
Ġgrate ful
Ġg if
Ġs uch
Ġbig ger
z e
Ġtra in
p h
f ort
Ġsn ack
Ġch o
Ġre ach
Ġbl ank
ĠA ll
Ġmon ster
Ġpr o
Ġpl ant
Ġjo in
Ġr iver
Ġbl ack
le ss
Ġw in
Ġc andy
i re
Ġblank et
Ġsc ream
Ġtre asure
Ġmagic al
e ar
Ġ ve
Ġprin cess
Ġe le
Ġsm art
Ġb ike
Ġdanger ous
Ġs ign
Ġdra gon
Ġac ross
Ġmon key
S ure
Ġb ar
Ġevery where
Ġmo st
ĠDad dy
Ġhelp ing
Ġn ap
Ġfar mer
out h
Ġe m
Ġm outh
W hy
s et
Ġdis app
Ġwor ds
Ġj e
i pped
Ġst re
or ed
H i
Ġtow er
m ing
e ared
Ġth rew
Ġste pped
Ġhe avy
Ġdoll s
Ġp ass
Ġb ite
d e
Ġbow l
Ġdir ty
Ġtw ins
Ġsa me
Ġcry ing
Ġbe e
Ġsp r
e re
Ġdo ctor
id ent
ĠM olly
Ġac c
Ġbelie ve
Ġwould n
Ġb ath
Ġhe al
ĠF l
ch ool
Ġh ig
b ble
Ġclo sed
Ġcar rot
Ġhe art
M ia
Ġst uck
ck ed
Ġc our
Ġfr uit
Ġb uck
Ġm in
Ġat t
Ġte ac
Ġs chool
ĠM r
Ġbr own
Ġhop ed
ĠJ ill
ask et
it ing
Ġs uddenly
Ġb asket
Ġfeel s
Ġm ix
Ġch air
Ġeat ing
Ġto wn
Ġcour se
Ġcr ay
Ġcl apped
Ġco ll
Ġgent le
Ġfair y
pp ing
Ġbut t
Ġp ack
vent ually
Ġst and
i er
Ġdro ve
or s
Ġpus hed
b r
is sed
Ġwelc ome
t s
Ġsw ings
Ġwith out
Ġhig her
Ġto day
Ġne igh
Ġpo cket
or row
Ġh it
Ġteac her
Ġneigh b
Ġp ers
or d
Ġsm o
Ġg ames
our n
Ġpie ce
ra ct
Ġche ered
Ġw ings
Ġfor get
Ġb en
Ġexpl ained
Ġj ourn
Ġy ard
Ġlong er
Ġf ree
F inally
i ble
Ġc orn
Ġacc ident
h o
e ad
Ġd ry
Ġal ong
um b
ĠM ary
m ent
c y
Ġno ises
itt ing
Ġne ck
Ġsa ng
Ġin st
Ġl ate
Ġhapp en
Ġthr ow
Ġhug s
L ila
Ġyou ng
Ġturn s
Ġstor ies
ve l
Ġsho es
ph ant
Ġl on
Ġm iss
Ġadventure s
Ġsing ing
Ġtr ou
Ġwe ll
Ġse a
Ġl unch
Ġapp le
Ġup set
Ġlon ely
Ġke y
c hes
Ġbel ong
bb y
ou n
Ġd ist
Ġsec ret
Ġstre et
Ġpl ac
Ġele phant
Ġto m
Ġw ish
Ġf ence
Ġm ine
ount ain
Ġm at
e k
Ġsh ap
Ġsh ook
Ġexpl oring
Ġmo ved
Ġp urp
Ġye ar
aught y
Ġnear by
Ġn aughty
Ġst ar
Ġs oup
Ġsh op
Ġw ise
ĠGra ndma
Ġst ars
Ġow l
Ġbr ing
fu sed
Ġj ar
b ow
D o
ock ed
Ġin v
Ġex p
Ġw he
y ard
Ġc aught
Ġs u
w ard
Ġback yard
Ġsee med
a il
Ġ es
Ġrel ie
Ġdro pped
Ġp h
Ġrock s
ĠEm ma
aught er
ll o
Ġ 3
us h
Ġdr ink
Ġbuck et
Ġd es
Ġc a
ad ow
c es
Ġpurp le
Ġsw am
Ġfar m
Ġre sp
Ġta king
Ġma il
Ġor ange
Ġth ough
ion s
A nd
Ġshap es
Ġp ast
co l
Ġc ow
Ġst u
ĠTh ank
Ġwo ke
Ġben ch
Ġsound s
Ġa f
un g
it y
s y
Ġwonder ed
Ġbus y
Ġf it
Ġt iny
Ġo b
Ġno se
Ġs itting
Ġn est
Ġrain bow
es e
Ġd aughter
Ġta kes
Ġm ark
Ġm ad
f ish
Ġc ou
Ġk ite
t o
Ġ O
re ad
Ġhold ing
w eet
Ġnot hing
Ġcom es
Ġju ice
Ġarm s
th day
Ġp ig
Ġco at
o g
ĠFl uffy
in ing
Ġc ir
ĠIn side
Ġbran ch
ra id
Ġrelie ved
pp er
Ġaf raid
c ing
o se
id ge
Ġdri ver
Ġm il
Ġfore ver
ver ed
Ġsp oon
Ġcut e
Ġcar ry
Ġgif t
Ġs ick
Ġb oun
Ġli ft
st ing
Ġpe ace
O f
Ġprom ise
our s
ĠF inally
Ġhug e
Ġa ct
Ġto u
Ġtou ched
Ġpat ient
u nt
Ġk ing
Ġr ound
c er
s c
Ġhe llo
ĠC ome
Ġbir thday
Ġf ing
Ġl etter
Ġgra b
Ġint ere
Ġexc iting
le t
Ġsun ny
Ġche ese
et h
Ġon to
Ġlaug hing
Ġday s
bo ard
Ġjourn ey
Ġg igg
Ġb and
Ġcreat ure
Ġdis co
ĠM ama
itt ens
Ġbre ad
He y
ar p
Ġre t
Ġim ag
p ed
sh ine
Ġli fe
Ġk ick
Ġbus h
g ged
Ġhop e
Ġp ower
Ġcra w
Ġshe ll
Ġco zy
Ġswim ming
Tom my
Ġin c
Ġbott le
Ġm ist
Ġsh arp
Ġw ra
g g
Ġs uc
Ġcom fort
Ġinst ead
Ġwh ist
Ġmil k
Ġwatch ing
Ġret urn
Ġe ar
n ess
Ġsp in
al m
Ġaccident ally
Ġe as
Ġsun shine
t en
ĠSo on
Ġc ave
p a
ĠSam my
Ġsp o
Ġput s
Ġl ucky
Ġtal ked
Ġh oney
Ġp udd
Ġpoin ted
Ġgi ves
Ġcoll ect
Ġg ather
it ch
Ġro ad
Ġ ent
L ater
Ġsmil ing
Ġb ought
Ġany one
Ġh or
Ġsear ched
Ġl ater
Ġc e
Ġf an
Ġsand w
b all
r ound
itt en
Ġapp les
el s
ble m
ir t
Ġpro blem
Ġme et
iz e
B ob
Ġm ach
L ucy
Ġw om
Ġlo ves
Ġintere sting
G ood
Åĵ I
Ġwom an
Ġpl ane
ĠT weet
Ġk iss
Ġpre s
Ġheal thy
e b
Ġp ile
Ġtast y
Ġduck s
u b
Ġv ill
ĠJim my
o ve
Ġw ide
on t
am ed
a ur
Ġad m
Ġe ag
Ġsp id
Ġcle ver
Ġcray ons
Ġpr ot
Ġm atter
Ġtrou ble
er ly
nd pa
Ġz oom
Ġcloud s
ow ed
ĠW ith
Ġstor m
Ġpers on
Ġp ath
ck s
Ġp ill
Ġfe ather
Ġr ope
Ġp op
Ġsh ining
Ġprot ect
Ġsmell ed
Ġfr ont
Ġh on
Ġbutt on
Ġp ract
Ġspot ted
Ġscream ed
Ġz oo
Ġmin ut
ĠE ll
Ġpres ent
C ome
Ġa p
Ġmu d
Ġv al
Ġresp ect
Ġsa f
Ġdan ced
Ġche er
Ġor gan
J im
Ġp ar
Ġqu est
o nd
Ġapp eared
Ġwh ich
Ġpu zz
Ġse at
M olly
Ġte ach
Ġmy ster
Ġsnow man
J ust
is a
Ġsn ake
Ġth in
er t
a le
Ġw ild
Ġas leep
Ġlove ly
Ġs ur
Ġansw er
ep end
Ġwe aring
Ġgent ly
Ġneighb or
oo se
M um
Ġb ark
Ġhor se
Ġgi ant
Ġplac es
Ġgo es
Ġwho le
omet imes
Ġsear ch
Ġspl as
E very
S t
Ġcorn er
Ġimp ress
ul ar
Ġdir t
Ġm ed
Ġsh r
e en
Ġtri es
Ġtri p
Ġcon fused
ĠEm ily
Ġli ve
Ġm ind
Ġd i
at o
l a
Ġroll ed
Ġc ard
Ġsl id
Ġtast ed
n ic
ce an
Ġas h
Ġo cean
I n
Ġsu pp
Ġforg ive
Ġpic nic
Ġru de
Ġmach ine
e x
Ġsp ent
ĠG o
Ġdri ve
Ġte eth
Ġs er
ss ed
itt y
Ġph one
ĠH ow
Ġo ven
Ġp an
Ġp our
Ġla st
Ġc alm
Ġpretend ed
Ġdel ight
Ġcook ie
Ġfur ry
Ġspid er
iz z
Ġfe et
Ġfa ces
un k
Ġl ay
Ġwor m
Ġr ing
ĠC h
Ġre c
um ber
Ġhelp ful
Ġl ad
ĠM ittens
Ġe ventually
Ġw ip
Ġch ick
Ġwa ve
Ġm ountain
Ġsa l
Ġb an
Ġem b
Ġtal king
on es
Ġro b
Ġfo ld
Ġsh y
Ġc art
Ġtom orrow
Ġs el
Ġcho col
Ġt id
ĠJen ny
Ġsp read
Ġvill age
ar ge
if e
Ġrem ind
Ġ ign
Ġbu bble
Ġt un
Ġco in
Ġfo ot
Ġcou ch
Ġwr ite
Ġlad der
Ġbuild ing
Ġpus h
Ġfight ing
Ġsmo oth
Ġtreat s
h ile
Ġw ore
Ġch ased
Ġtoo l
ig hed
Ġb lew
Ġst ret
le x
M y
S oon
ar ra
Ġbug s
Ġemb arra
Ġhid ing
Ġp ool
Ġc ross
Ġwait ing
op h
Ġkne e
Ġrob ot
Ġneck l
Ġst ep
Ġpudd le
m o
Ġfin ish
Ġshe lf
Ġbe ll
Ġc oo
n ot
al s
Ġsong s
Ġst ir
at or
Ġwhen ever
Ġsel fish
Ġa nt
Ġm aybe
Ġcan not
Ġstr ing
Ġst ra
Ġchocol ate
ul t
Ġso l
Ġtast e
Ġsp e
Ġre p
Ġh um
Ġp le
Ġl arge
M ama
Ġpa w
Ġn et
ĠJ ake
bo x
Ġsa ck
Ġlea f
Ġsc ar
Ġfix ed
ĠS t
le br
Ġbar ked
Ġtid y
ump y
Ġban an
Ġwas h
ĠEvery where
ĠS ometimes
Ġspr ay
Ġst one
o ld
ĠJ ust
h nn
Ġce lebr
Ġg en
Ġcl oth
P lease
Ġcra b
ĠL e
D ad
Ġpeace ful
Ġcol our
ung le
ĠP lease
hnn y
Ġhe l
ir d
o in
l ice
Ġm issed
Ġd eter
Ġj ungle
Ġ '
ig er
ar m
N ow
Ġland ed
Ġdeter m
Ġfor ward
Ġembarra ssed
Ġneckl ace
Sara h
Ġhon est
Ġjump ing
air s
ell y
Ġb at
ĠThe ir
Ġdec or
d ge
Ġtr ust
Ġhe ars
Ġmo on
or ry
Ġstick s
ĠT V
Ġsh irt
Ġcreat ive
Ġsh aring
a king
Ġte a
mo st
Ġkn ocked
Ġcarrot s
Ġdisapp oin
Ġsuc cess
Ġme adow
y ing
get able
Ġwh is
Ġst ood
Ġgen er
Ġve getable
Ġb al
ĠD on
Ġme ant
Ġle gs
Ġtight ly
Ġbre ath
Ġpl ate
Ġal most
Ġash amed
n ed
Ġem p
Ġs our
Ġgr ay
d le
Ġgre w
Ġtell s
Ġemp ty
ĠS ome
Ġpill ow
g round
on y
Ġg as
Ġspl ash
Ġwhist le
Ġ On
i an
Ġunderst ood
B e
Ġshe ep
Ġb er
Ġcar ried
d en
ĠL isa
Ġyell ed
ĠW hy
T o
Ġle m
ĠT eddy
ust r
ar l
ĠA nn
Ġno ds
er p
v ous
Ġsa ve
Ġpol ice
Ġdisappoin ted
Ġsnack s
Ġh ours
Ġn ut
it al
Ġwhis p
Ġje w
W here
Ġthe se
h in
or k
Ġho sp
et s
Ġspark ly
Ġgo ld
Ġhosp ital
Ġk itten
ĠE ven
ĠM um
Ġsh ip
Ġp ay
in a
o bby
ĠTo gether
Ġb ored
ur se
Ġl ine
Ġgener ous
Ġfr ustr
Ġt est
Ġhid den
Ġta ught
Ġstand ing
Ġr ad
Ġscar f
if f
Ġche w
Ġreturn ed
Ġminut es
Ġp izz
Ġknow ing
Ġgr oup
Ġh ur
Ġplant s
Ġeas y
Ġbl ow
Ġbed room
Ġpol ite
Ġmyster ious
Ġwa ves
Ġgl ass
Ġs ighed
Ġsh ore
Ġp ri
Ġse ed
Ġwo lf
us ie
Ġsee k
Ġdeterm ined
ĠP eter
k in
St op
Ġpuzz le
Ġpower ful
Ġthank ful
J ane
f l
Ġcl ass
Ġn er
ĠB e
Ġp ir
Ġsandw ich
Ġf ig
Ġsleep y
Ġprin ce
Ġpass ed
Ġd rew
' d
Ġfing er
Ġj elly
Ġpizz a
Ġner vous
Ġfrustr ated
Ġsp icy
Ġg un
Ġspo il
Ġmat ch
Ġfan cy
Ġmess y
os aur
w ork
Ġg ate
The re
Ġbr idge
Ġlo ck
Ġk issed
Ġt ick
au l
Ġclos et
Ġfe ar
Ġre g
a f
Ġfe ed
Ġm ot
Ġso ld
Ġw is
Ġgather ed
oo p
Ġa v
Ġexc ite
Ġpo or
Ġcir c
ot e
Ġha ng
Ġcat erp
Ġcaterp ill
Ġes c
Ġfl ag
Ġp in
Ġgr umpy
Ġv an
id dle
ell a
Ġdin osaur
Ġyour self
an o
iss ors
u ce
Ġansw ered
Ġc ries
A re
Ġof ten
itt er
Ġ Z
Ġtw irl
sel ves
Ġche st
s ist
Ġsc issors
Ġho pping
Ġte ars
p ack
g ly
m b
S orry
Ġm ummy
ĠR ex
Ġu gly
er a
Ġb urn
Ġc and
ens ive
Ġde er
Ġdr op
ill ed
Ġf il
Ġexcite ment
iz zy
Ġcaterpill ar
Ġl it
Ġwor king
Ġm iddle
Ġexp ensive
Ġsc r
Ġsa ved
Ġta ken
ĠB r
Ġo k
Ġtr ue
Ġwa gged
Ġon es
Ġple ased
Ġcr own
Ġsp end
Ġb oring
Ġpick s
Ġle g
qu e
oo f
ug ar
Ġv ase
Ġt ent
Ġas king
bo dy
Jim my
u al
ĠB l
Ġbr ush
Ġt ie
at es
Ġvegetable s
eci ally
Ġgigg led
Ġbo ss
W ho
et e
The ir
Ġmist ake
Ġc age
s er
Ġget s
l ight
Ġrock et
Ġc ap
Ġm ir
ĠLe o
Ġcomfort able
Ġs ugar
Ġe ld
Ġst uff
Ġpack ed
S p
ĠJo hnny
Ġdan cing
p ecially
Ġes pecially
Ġwa nder
Ġcl own
Ġmed ic
Ġn umber
Ġp ress
Ġs ight
Ġkn ight
us hed
g gs
ot s
Ġfruit s
in ess
Ġe ggs
Ġl ying
Ġdr um
Ġf ake
Ġd est
r or
Ġmedic ine
Ġwalk s
Ġdist ance
ag ed
Ġgl ue
Ġsplas hed
Ġsweet ie
Ġb ake
Ġfl ut
Ġb one
Ġdraw ing
Ġmo ving
Ġdisapp eared
h a
Ġwe ek
Ġ OK
Ġle ad
Ġsmell y
Ġcl ap
Ġbec ome
Ġlem on
Ġch ange
Ġpr ay
Ġfeather s
Ġmom s
Ġlo se
Ġmo v
Ġli cked
Ġcall ing
ĠI f
Ġtw ist
Ġdog s
Ġbath room
Ġplay ground
or y
y al
Ġf is
M e
Ġla zy
en ny
S ally
Ġro ar
Ġeld erly
Ġwe ak
Ġinc red
Ġc ri
Ġg ar
?" .
Ġbo dy
Ġh orn
Ġex am
Ġcr ack
G ra
Jo e
Ġquest ions
Ġa dd
Ġwr ote
B illy
Ġy og
Ġyour s
Ġno isy
Ġf ather
Ġmir ror
ugg est
Ġm ic
Ġno d
Ġs uggest
el p
at ing
ee z
Ġfl uffy
Ġsk ipped
Ġ ed
Ġwhe el
Ġeag er
Ġlo yal
Ġl amp
Ġd ish
Ġex t
Ġcle ar
Ġfam ous
l and
Ġd ig
Ġst ones
Ġru ined
ĠA t
in ation
Ġr ich
Ġr are
Ġor d
ĠE nd
Ġt ape
Ġse ll
Ġdr ank
Ġcont ent
Ġfig ure
Ġqu een
Ġmar ch
Ġincred ible
Ġgl ow
Ġm ap
Ġshow s
h ip
Ġr id
t i
Ġche ck
Ġju icy
Ġso ap
Ġco vered
Ġ ind
Ġball s
Ġsail ed
im p
Ġrel ax
Ġa w
A my
Ġsho ot
ill i
Ġte am
at ely
Ġme asure
Ġdec ide
Ġreal ised
umb led
Ġdisco vered
Ġco ins
Ġneed s
Ġb orrow
Ġsw an
Ġstra w
f ic
Ġadvent ur
ĠBl ue
J ill
ce pt
Ġ No
H elp
Ġclean ed
Ġbran ches
Ġtow el
Ġboy s
Ġext ra
Ġha m
ĠL ittle
as ing
W ell
Ġbo ard
Ġchick en
Ġb arn
Ġmo d
Ġt iger
Ġmot or
Ġt ag
Ġadventur ous
Ġjo ke
Ġdif fic
Ġoff ered
Ġf ine
ke ep
Ġbal ance
Ġlift ed
i que
Ġbubble s
Ġcolour ful
Ġfr own
Ġt urt
Ġey e
Ġth ick
M ummy
Ġdiffic ult
Ġbott om
Ġtr ack
Ġto ug
al ous
Ġorgan ized
Ġco ver
Ġhappen ing
Ġun ique
ra g
Ġje alous
Ġdo lp
Ġho se
p ort
Ġkn ife
Ġwe ird
Ġis land
ĠS usie
c il
Ġgar age
Ġfr ight
Ġman aged
ll a
im ed
Ġhurt s
Ġpen cil
Ġwor d
S ue
j ect
Ġcraw led
Ġco st
Ġlearn ing
Ġar g
Sp ot
Ġcir cle
ĠM ark
Ġsay ing
Ġkind ness
ur ed
Ġber ries
Ġon ce
ol og
Ġmight y
Ġballoon s
Ġtoug h
Ġpoin ting
Ġch ase
Ġba ld
Ġfav our
re ady
Ġwa nd
Ġt er
l ies
keep er
Ġsh ake
u nd
i v
ĠB obby
Ġjew el
Ġloud er
ĠBr own
i pper
Ġa dded
ag es
Ġb atter
Ġs il
Ġh unt
Ġun us
Ġg uit
Ġhard er
Ġgu ess
Ġap olog
Ġed ge
he ad
Ġal ready
Ġf our
Ġan g
Ġsp un
Ġfavour ite
Ġf ool
Ġn orm
Ġwh ale
H ow
Ġunus ual
Ġli br
Ġval u
i pp
ra ge
al k
Ġenjoy ing
ĠK itty
Ġd izzy
a w
Ġhat s
Ġp ump
Ġbelong ed
Ġgra ce
Ġwra pped
Ġcheer ful
Ġsmo ke
ugg led
Ġimpress ed
Ġstraw ber
Ġtruck s
Ġrec ord
Ġgi ving
Ġsw ord
Ġmark et
Ġgr own
Ġre f
Ġlaugh s
Ġtr unk
Ġnorm al
an ged
Ġgra nd
Ġher o
Ġe ars
Ġguit ar
Ġloud ly
ol a
illi ant
Ġh arm
Ġturt le
He re
Ġbanan a
Ġproud ly
Ġbox es
Ġsc are
at ure
il t
Ġbr illiant
er y
Ġch oose
Ġbrother s
Ġcirc les
Ġter ri
Ġboss y
Ġdream ed
Ġagain st
Ġesc ape
y m
Ġgo at
Ġinv ited
Ġsk in
Ġca b
Ġhelp s
g y
c ient
Ġcomp et
Ġp il
ip e
Ġpain ting
Ġmean s
Ġm elt
Ġfright ened
Ġac cept
f ast
Ġpe e
Ġfl ash
Ġsaf ely
Ġd epend
Ġbutt ons
Ġsl ipped
Ġdes ign
Ġstu bb
Ġbird ie
Ġj ack
ĠD an
Ġwra p
Ġvalu able
Ġcab in
Ġcray on
ĠEll ie
Ġwa ke
Ġst ream
ĠF red
Ġwall s
Ġhapp iness
ous es
Ġbreak fast
Ġlo g
er ry
Ġan cient
ed ient
Ġstu dy
Ġsuccess ful
Ġcl ay
em o
or ge
Ġknow s
Ġfool ish
Ġto ast
Ġfall s
y e
Ġfr idge
Ġle an
Ġstubb orn
Ġun l
Ġnice ly
at ch
Ġsh ape
app ing
om ed
Ġfi er
Ġc udd
ĠP ete
Ġr ough
Ġdream s
Ġmov ie
Ġsp ace
Ġh ouses
Ġc ity
Ġno sy
Ġbl oom
Ġdelic ate
Ġob edient
Ġfier ce
ĠM y
Ġoff ice
Ġtom ato
Ġf at
Ġgra ndpa
ad o
la imed
a z
Ġ icy
Ġcompet it
Ġsuggest ed
ĠTo day
Ġsh ark
Ġde ad
Ġnot ice
Ġwa gon
p es
Ġexc laimed
Ġme m
Ġkind s
Ġmix ed
Ġwip ed
Ġc her
Ġuse ful
e xt
Ġpour ed
Ġshell s
ut h
Åĵ Let
Ġst ri
ĠBob o
Ġlight s
Ġtool s
Ġlo cked
Ġsound ed
Ġth u
Ġsto ve
Ġexcited ly
Ġexpl ored
Ġa unt
w ards
Ġe gg
ĠR ose
Ġf rag
e orge
Ġro se
!" .
Ġs on
o ppy
Ġsh adow
Ġt imes
ar ry
Ġc ro
Ġen c
ĠTweet y
Ġbag s
Ġf ountain
ent ion
Ġthem selves
o ot
Ġst umbled
Ġbus hes
Ġwe al
ac he
d om
Ġl ow
Ġshow ing
Ġspoil ed
Ġfing ers
Ġperf orm
Ġla b
Ġab ove
v ice
Ġthought ful
Ġre sc
Ġind epend
k n
Ġsmall er
Ġw itch
Ġd ough
E m
Ġfrag ile
n a
Ġdepend able
r ay
Ġra ced
Ġjo g
art h
Ġplay ful
in al
Ġsee m
Ġhel m
Ġspin ning
Ġen g
Ġte le
c orn
Ġclo ck
Ġbright ly
in es
Ġprin t
Ġro de
Ġstret ch
Ġpar rot
orm ous
Ġdelight ed
Ġbu ilt
Ġadm ired
Ġen ormous
Ġla w
Ġkick ed
Ġ U
Ġr oof
Ġcount ed
Ġj am
Ġsw e
Ġr at
Ġpract ice
re en
Ġor ig
Ġway s
Ġch anged
Ġsh one
Ġsun fl
Ġc op
ĠEll a
Ġremind ed
Ġtw ig
Ġac orn
it her
Ġc am
i ence
Ġsn iff
Ġz ip
ee ze
Ġham mer
Ġindepend ent
ĠYou r
Ġus ing
Ġb itter
Ġhand ed
Ġwhisp ered
Ġh oop
mb re
kn own
Ġcho se
Ġch ir
an ut
Ġlo ll
Ġjo lly
Ġu mbre
ĠMr s
Ġc one
Ġtun n
Ġsol ve
Ġstrong er
Ġbe es
Ġser ious
ip op
ĠM ar
Ġorig inal
Ġt ummy
Ġste al
Ġbe ak
Ġbra ce
Ġterri ble
Åĵ Yes
Ġm is
Ġpop corn
Ġf re
Ġloll ipop
Ġpain ted
Ġboat s
Ġall owed
Ġhair y
ic t
Ġmo der
ia ble
Ġsa uce
Ġclean ing
Ġun known
Ġlea ving
Ġd ust
ĠB ella
Ġgas ped
Ġfind ing
Ġjo ined
Ġgu ard
Ġsal ad
Ġpot ato
he t
Ġbe an
Ġpump kin
S ee
up id
ie w
ĠB u
Ġpick ing
Ġcl um
in ary
Ġdo ve
an ger
Ġb ump
ĠN emo
Ġha lf
Ġs ink
am ond
Ġcost um
ur ing
Ġy et
ro be
Ġmet al
Ġt ank
Ġboun ce
Ġrel iable
Ġpo st
Ġto r
Ġv iew
Ġdoes n
Ġth ose
Ġfor th
ag het
aghet ti
Ġdi amond
Ġdolp hin
Ġad vice
c om
ĠS n
Ġh ay
Ġbar ber
Ġmoder n
Ġst amp
Ġru bb
Ġthin king
Ġg em
Ġ ing
Ġhold s
g u
eb ra
ĠA lice
Ġpir ate
ug ged
Ġmar ble
Ġcre ate
Ġreg ular
red ient
Ġing redient
ĠGra ndpa
Ġclum sy
Ġsleep ing
Ġsearch ing
Ġst airs
Ġweal thy
Ġy arn
Ġr ushed
Ġst upid
Ġpre p
il ty
Ġtell ing
ĠWhen ever
Ġsp aghetti
Ġgu ilty
Ġche ap
Ġpe anut
Ġg oose
Ġch ar
Åĵ What
oph ie
Ġru b
Ġmag n
ation s
Ġf lex
ĠF r
Ġcomp ass
Ġopen s
Ġm ask
Ġpat ch
Ġst at
Ġar row
Ġz ebra
Ġeng ine
i o
Ġthu nder
Ġkn ock
Ġsqu are
ill a
eez ed
irst y
Ġang el
Ġc ur
Ġgrace ful
Ġcam era
Ġumbre lla
co d
Ġdri ving
ĠM ike
Ġbu ll
Ġcra zy
âĤ¬â Ģ
Ġsh iver
G o
Ġwas hed
Ġcarry ing
Ġst age
is k
Ġpop ular
Ġbe et
Ġd ull
umb ers
Åĵ It
Ġmiss ing
ĠD ucky
M ary
Ġspark led
Ġfriends hip
Ġtr uth
Ġme al
Ġseed s
f a
Ġflex ible
Ġimpress ive
Ġsn e
Ġt ied
Ġpe bble
t ime
Ġcare less
Ġlibr ary
Ġimag ined
Ġcom b
up er
Ġdel iver
Ġn ature
Ġshe l
Ġend ing
Ġp atter
Ġdest ro
Ġjack et
Ġpers ist
Ġre ward
Ġhand le
is ion
Ġfre sh
Ġru bbed
Ġingredient s
Ġdream ing
Ġsh ocked
ri c
Ġpri ze
oom y
ĠD ave
Ġs udden
Ġcro cod
Ġlo ad
Ġent h
ie f
i bb
Ġpig e
Ġpatter n
Ġcompass ion
Ġen vel
Ġflash light
Ġth irsty
Ġsad ly
Ġenc ou
Ġstr anger
Ġenth us
in ce
ĠF in
Ġwhe els
Ġdes k
ÅĵLet Ã¢
em ent
ars h
Ġread ing
Ġw ire
Ġdisco ver
Ġear ly
Ġmail box
Ġfor k
Ġs uit
Ġn umbers
Ġt em
Ġpee ked
Ġpen ny
Ġbutterf lies
a wn
Ġcry st
Ġsp illed
Ġbrace let
Ġtor n
Ġr ug
Ġg um
Ġstop s
l oo
Ġre ce
Ġen v
Ġcomp ut
Ġa head
Ġspr ing
b led
Ġor der
Ġtow ers
com fort
Ġsor ts
Ġob ject
ell ig
Ġw ing
Ġb ent
Ġc ere
Ġan x
Ġsur f
ĠB ear
Ġpen gu
Ġe arth
Ġint ellig
Ġwar ned
Ġwindow s
ĠM ummy
Ġspo ke
Ġp ow
ĠW hile
Ġpu p
g est
Ġhum ble
Ġun comfort
Ġav o
Ġp ant
Ġnot e
Ġuncomfort able
ĠM andy
Ġplac ed
Y ay
ic hes
Ġsunfl ower
O w
Ġpa le
Ġtra vel
Ġbad ly
Ġold er
Ġslid es
Ġanx ious
i kes
Ġbig gest
Ġsc ale
Ġcom pl
Ġcouldn Ã¢
Ġst ack
Ġflut e
Ġtra p
Ġstat ue
Ġsc oot
Ġcount ing
Ġgrow ing
Ġcoo king
ĠP e
Ġcomp let
Ġli z
Ġtunn el
Ġbeet le
Ġcelebr ate
ho st
Ġm el
Ġcup board
Ġmu sh
Ġso fa
ĠK im
Ġn ail
Ġharm less
Ġsc atter
ĠB ill
Ġbeaut y
Ġmo le
Ġde af
Ġval ue
Ġn urse
Ġs uper
Ġper m
Ġ er
ĠHe re
Ġsh ut
Ġpersist ent
Ġjump s
W hile
Ġcrocod ile
Ġhun g
Ġg host
Ġgif ted
Ġre fused
Ġchar ming
Ġtri ck
ĠG ive
Ġne at
Ġnam es
Ġcou rage
op us
Ġy awn
Ġfl our
ct opus
Ġcr ane
Ġc urt
Ġpretend ing
c ream
Ġp ony
Ġcere al
Ġb ase
Ġsandw iches
ic es
ĠL ola
Ġra ven
Ġsn uggled
ĠTo by
Ġcurt ain
Ġsupp ort
Ġdestro y
Ġt ur
Ġord inary
Ġch asing
u d
Ġun iver
a id
ĠL ook
Ġquest ion
Ġenvel ope
ac hes
Ġdraw er
Ġtri ang
Ġv i
Ġc amp
Ġset t
D aisy
us ed
Ġcomput er
Ġo ctopus
Ġatt ract
Ġru les
Ġcraw l
Ġlive ly
Ġs end
Ġgl oomy
A lice
Ġcart oon
a by
Ġun cle
Ġintellig ent
ip s
Ġm ay
Ġpi ano
Ġspe ed
Ġpack age
Ġblue ber
Ġsh aking
c u
Ġhelm et
Ġcryst al
Ġneed le
Ġmush room
Ġtur key
o e
ĠE ventually
Ġcoll ar
Ġpar ade
Ġcreature s
st ri
udd y
he art
Åĵ That
R e
Ġhur ry
Ġtwirl ed
Ġph ot
Ġliz ard
ill ie
er able
en ry
u bby
a ff
or ant
Ġal ert
Ġmis erable
Ġth ief
g ust
Ġst ation
Ġsold ier
Ġhunt er
Ġpe pper
ce ed
Ġt ask
arl ie
Ġany where
Ġd ug
Ġdis gust
Ġb icy
Ġfire man
Ġen er
c ut
Ġcar p
i est
Ġwis hes
Ġse al
Ġre sist
Ġl ed
Ġv ide
Ġbe ep
Ġign orant
Ġband age
Ġstick ers
co a
Ġsc reen
Ġrad io
Ġhelp less
Ġboun ced
t ter
Ġtra sh
G ive
Ġsec ond
Ġle ash
Ġrep e
Ġpract iced
Ġmu ff
Ġsh ine
Ġch ance
Ġletter s
Ġattract ive
Ġimp at
Ġm ill
Ġstir red
Ġcri cket
Ġje ep
Ġstret ched
Ġno body
ur b
Ġth read
Ġpast a
Ġcu be
Ġp and
Ġch ubby
Ġto oth
um mer
Ġf u
Ġpige on
s es
I f
Ġj et
Ġg ir
Ġcompassion ate
c col
ĠG eorge
Ben ny
Ġcl ub
ĠC l
ccol i
ar ian
ĠP olly
Ġtr ump
Ġdist urb
or able
Ġdecor ate
Ġco coa
Ġbright er
Ġj ug
Ġstep s
Ġimpat ient
Ġt ire
Ġcompetit ive
Ġfur ther
Ġo tter
Ġrespect ful
Ġsuc ceed
Ġtrou bled
Ġpress ed
ol in
Ġit self
a ked
Ġb et
Ġo stri
n oon
Ġcand le
Ġm ug
ĠW h
Ġafter noon
Ġatt ic
ĠA l
Ġrest less
Ġstart s
Ġp un
Ġt ap
Ġsome where
Ġr ibb
ĠA re
aur ant
st ic
Ġd ess
Ġqu ar
Ġcarp et
Ġany way
Ġshout s
Ġsho e
Ġdisgust ing
Ġad orable
Ġrest aurant
Ġsk ip
Ġle op
Ġfor t
g n
Ġpant s
Ġv ine
Ġtr ay
Ġnut s
Ġwa ff
Ġc ase
c ome
Ġg or
Ġfear ful
Ġsc rew
Ġenv ious
Ġsweet heart
op ter
Ġc ards
Ġall ig
ic opter
L ittle
ia stic
Ġdist ant
Ġbro ccoli
Ġenthus iastic
Ġh ipp
Ġfil thy
ĠS h
Ġgigg le
Ġexp er
Ġtrump et
Ġcoo ked
Ġhel icopter
Ġmonkey s
n ight
Gra ndma
Ġre co
Ġp or
ĠW here
ir it
Ġsand box
ar oo
ang aroo
Ġh ook
ĠW ould
gg ing
Ġb ri
ĠL ee
Ġadm ire
Ġnow here
Ġt en
Ġh arsh
Ġback pack
Ġso ar
ĠBrown ie
Ġs ent
Ġbel t
Ġbat ht
g ie
Ġexpl ain
Ġscoot er
Ġa nts
ll ie
Ġme as
op l
Ġpo em
er opl
Ġcount ry
cy cle
Ġbatht ub
Ġp ipe
Ġa eropl
Ġbark ing
Ġqu ite
Ġun pack
st airs
Ġcow s
p ar
Ġspe ak
Ġk angaroo
Ġl id
Ġsqu ash
Ġleop ard
Ġm ama
Ġhapp ier
Ġsp ell
Ġtem p
Ġrep air
Ġlisten ing
Ġbicy cle
Ġse par
im i
ĠEvery thing
Ġs ummer
Ġst ared
Ġc ush
Ġgrab s
Ġmess age
Ġbre at
Ġdidn Ã¢
uc t
Ġostri ch
Ġfire work
ĠA lex
Ġhum an
Ġloo p
Ġgi ven
Ġc omet
Ġmu le
h ood
ap a
Ġsor t
Ġimp ro
J enny
Ġgor illa
ĠJoe y
Ġmod est
Ġpa id
Ġfind s
y ear
Ġyog urt
Ġdess ert
Ġme at
Ġob ser
Ġvi olin
Ġu r
ĠS ophie
B ye
Ġhe dge
i pping
Ġsp irit
ĠS m
Ġpull s
Ġtri pped
s hed
Ġjelly fish
Ġmel on
Ġspl it
Ġpaw s
Ġallig ator
Every one
Ġresc ue
Ġs ize
Ġho les
Ġpro v
uck ed
Ġro ared
Ġf ive
Ġforg ave
ĠP at
Ġcat s
Ġwhe at
Ġp urse
Ġreco gn
Ġhipp o
Ġpil ot
Ġha ll
Dad dy
Ġt ax
Ġshe et
Ġp al
Ġca ct
Ġin se
Ġpus hing
oph one
Ġb ikes
Ġorgan ize
c i
Ġswing ing
Ġs le
Ġra ft
Ġsal t
Ġsc old
Ġstart ing
Ġsh ade
Ġbeh ave
Ġb in
Ġlight ning
Ġf le
Ġo at
Ġr ice
ĠSn ow
Ġhair cut
Ġtriang le
e er
Ġbu zz
Ġener gy
isk ers
ĠTweet ie
Åĵ You
Ġb ur
Ġkn ot
Ġfrown ed
b ul
Ġle ar
al ed
Ġlear nt
Ġe ither
Ġpor ch
Ġm ath
Ġrid ing
Ġp ed
Ġli p
lc ano
se um
Ġtra ins
eb ook
Ġend ed
Ġnot ebook
Ġstick er
il ing
in king
Ġl end
Ġwall et
Ġl uck
Ġeven ing
re ci
Ġpand a
Ġcact us
Ġjo kes
Ġch alk
Ġbanan as
Ġpap ers
Ġro d
Ġmu seum
Ġswe ater
Ġapp reci
Ġli ons
Ġpal ace
Ġtax i
Ġvo lcano
u be
Ġshop keeper
Ġch ain
Ġstrawber ry
Ġbear s
Ġroll ing
Ġbo ots
Ġer as
Ġhad n
ast ic
Ġneighb our
Ġbar rel
Ġsh akes
f fe
Ġmic r
ic er
ffe e
oo ped
Ġsil ver
ur ch
Ġla und
Ġal ive
Ġsmell s
Ġm ild
pl ay
Ġre ind
Ġso ck
ĠR ed
ĠJ erry
Ġlaund ry
Ġste ak
ĠAnd y
Ġavo c
Ġin k
Ġpo le
Ġstr ugg
ir on
Ġpus hes
ĠT r
Ġput ting
Ġvis ited
Ġgo al
Ġsoft ly
Ġmagn et
Ġju dge
ed y
Ġtri cks
Ġdraw ings
Ġmicr ophone
Ġcl apping
Ġp ad
Ġo l
Ġh ive
Ġsh ield
Ġt ube
Ġlean ed
Ġcol ours
Ġsail or
Ġsho vel
Ġair port
H a
Ġzoom ed
Ġfall ing
Ġr ag
Ġbelong s
Ġshel ter
ag gie
Ġunl ock
Ġspr ink
Ġche cked
el ery
ha ppy
Ġin sist
Ġpengu in
Ġquar rel
Ġam bul
Ġclimb ing
Ġmar ched
ĠP aul
Ġg ro
Ġdis play
Ġreind eer
c ast
hin o
Ġsa us
ĠB et
en se
Ġaeropl ane
Ġd ive
Ġdis hes
op hy
Ġpol ish
Ġbark s
g es
Ġav ail
Ġdon Ã¢
Ġfield s
Ġgra pes
Ġsand cast
Ġambul ance
Ġpe ek
a it
Ġapolog ized
Ġy ach
Ġso il
Ġco ffee
Ġsk ill
ĠP apa
sel y
Ġcostum e
Ġele v
Ġo y
Ġtr ophy
Ġfeel ings
Ġplan et
ĠO r
Ġhop ing
an ic
Ġfil m
Ġpr un
Ġar t
Ġrubb er
r on
Ġun happy
Ġdrop s
Ġshr imp
n ger
ĠB unny
Ġmed al
Ġk itty
âĤ¬âĢ ľ
Ġthank s
Ġrain ing
Ġm en
ch anic
Ġst om
Ġminut e
Ġelev ator
Ġc elery
Ġc ord
Ġon ion
Ġr hino
Ġavail able
ect ed
Ġeras er
Ġinc l
Ġp age
Ġsh ort
Ġyach t
ree ze
Ġshould n
Ġfis her
Ġperfect ly
Ġimag ine
Ġw ool
Ġmar ry
Ġwin ter
Ġbasket ball
Ġme chanic
ĠB uddy
Ġdi ary
n am
Ġbu l
Ġher b
Ġfl ies
Ġcomplet e
Ġre ver
Ġapp l
Ġclo sely
Ġcard board
Ġinse ct
Ġmag az
Ġeag erly
Ġplay er
ĠWh iskers
e ath
Ġjourn al
ĠW ill
Ġba king
Ġve nd
Ġqu it
Ġf urn
Ġgl ove
it ure
ĠSm ith
Ġdis ag
Ġfurn iture
Ġstuff ed
Ġt ub
Ġbreak s
Ġimag ination
Ġbul b
Ġtreasure s
Ġch urch
g en
ec ause
Ġcount er
an y
Ġw ife
Ġhead ed
Ġcool er
a zz
Ġp air
Ġfree z
Ġfrog s
Ġt ut
qu it
Ġsk ull
ma nd
or ies
Ġp it
Ġkn ob
w een
Ġfa ctor
st ead
r ight
Ġsw itch
Ġfoot ball
pl ace
Ġoff er
id es
Ġsun set
Ġbet ween
Ġli e
if l
aul ifl
Ġche ek
C h
Ġs ym
Ġsw ung
Ġfactor y
Ġcup s
ĠT ed
Ġmotor cycle
Ġchir p
Ġmo s
quit o
Ġfl ame
Ġtw ink
Ġshout ing
. .
nam ent
Ġpain ter
Ġgo lf
Ġpe ach
Ġor nament
ke let
Ġblow ing
Ġh ut
Ġsun g
af fe
Ġhot el
Ġsee ing
Ġc aulifl
Ġfold er
Ġvend or
c cer
ĠM imi
l ass
Ġvide o
Ġmix er
p e
a b
iz es
bo l
Ġthrow s
Ġpir ates
Ġcreat ed
ors es
Ġhead s
Ġo il
Ġk ay
Ġfr ame
Ġmos quito
ang u
Ġcush ion
m m
Ġso ccer
ĠMar ia
Ġfisher man
Ġco al
ĠB un
z zy
Ġsym bol
Ġh orses
Ġc able
cer os
Ġpo pped
Ġl angu
Ġwip e
Ġp ine
ĠB aby
Ġatt ention
Ġs kelet
Ġbatter y
Ġpow der
Ġcaulifl ower
Ġstu d
Ġla ser
e f
re nder
Ġforgot ten
Ġwe ather
ĠL illy
ro d
Ġli ves
Ġm op
os ie
Ġcelebr ated
Ġfis hing
Ġa x
Ġr ot
Ġs ince
Ġtra il
ĠI Ã¢
el come
Ġma ze
aw s
Ġphot o
ĠGo d
it es
Ġyog a
Ġsur round
ĠR o
Ġwa ving
ĠGra ce
Ġsle pt
Ġsne ak
Ġan ch
Ġde ar
un ately
Ġgir affe
Ġint rod
Ġrhino ceros
Ġpo ke
Ġsw amp
In side
Ġfle a
Ġpoin ts
Ġit ch
Ġpoin t
Ġglow ing
Ġit Ã¢
Ġfire place
Ġb reeze
n ey
lass es
You r
Ġsu b
Ġv et
Ġsung lasses
Ġking dom
ĠAnn ie
Ġmem ories
ĠCh arlie
Ġtut or
Ġstre ng
Ġtun a
Ġ iron
Ġre ve
Ġv est
sp ap
ĠS andy
Ġpet als
Ġfo g
Ġmist akes
Ġax e
Ġcompl ain
Ġbase ball
Ġdan cer
Ġchick ens
Ġpare nt
Ġ ig
her o
Ġnew spap
Ġstreng th
Ġgre edy
Ġce iling
ck ey
Ġsquirrel s
Ġho ckey
Ġig loo
Ġs ir
Ġgr in
Ġanch or
Ġskelet on
ro sc
Ġsniff ed
Ġgro cer
Ġsuper hero
Ġarg ue
ĠU n
Ġnap kin
ch ie
E ventually
Ġgold en
u es
Ġhang ing
Ġtra ve
Ġmusic ian
med i
Ġsk irt
ĠT ony
rosc ope
Ġst aff
Ġtemp le
Ġun if
Ġag ree
Ġsqu e
Ġbu ry
medi ately
Ġthe ater
Ġdis cu
Ġunif orm
Ġeat en
ĠJ ess
Ġsl ipper
Ġwelc omed
Ġse as
Ġshould er
Thank s
Ġz ipper
Ġquiet ly
ss ible
Ġmeet ing
Ġl ime
Ġinv est
ist ol
Ġmic roscope
Ġpin ch
ch air
Ġfl apped
Ġslipper y
Ġaccept ed
Ġf ought
Ġinvest ig
Ġp istol
er c
Ġdoor s
Ġmin er
ree k
Ġrad ish
Ġpl astic
Ġthrow ing
Ġcall s
Ġboun cing
t ress
To day
Ġmat tress
m en
ĠIn stead
Ġsur render
Ġco b
ac es
h ouse
Ġpe ar
Ġc reek
Ġv room
Ġkay ak
Em ma
t ain
Ġmo ves
Ġstick y
Q u
Ġlaw y
W ait
ĠH enry
Ġno vel
all ey
Ġcu b
Ġavoc ado
Ġc ared
Ġs uff
Ġfreez er
Ġlot ion
au d
c ase
l er
is on
ĠM illie
t e
w as
Ġfa uc
an ny
Ġarm chair
Ġwr iting
in ked
Ġre ef
Ġmake up
Ġmyster y
Ġv alley
w eb
Ġt ug
Ġinvestig ate
Ġnew s
Ġsail ing
Ġcher ries
Ġreg ret
Ġcri b
was her
im ney
Ġex erc
Ġoy ster
Ġfauc et
Ġag re
Ġsplas hing
ĠK ate
Ġtick et
Ġcollect ed
Ġwor th
Ġch imney
Ġto il
To gether
Ġpresent s
Ġdish washer
Ġmagaz ine
Ġhapp ens
Ġspray ed
Ġwa gs
ÅĵIt Ã¢
N ext
Ġpre vent
Ġcob web
Ġqu ack
Ġve il
Ġcast les
Ġent ered
Ġte ar
Sam my
Ġshr ugged
Ġh ar
Ġpass port
Ġappl aud
Ġche ss
Ġsepar ate
Ġscold ed
le nd
Ċ Ġ
Ġwe igh
Ġtoil et
Ġal arm
ĠDan ny
i ves
Ġblanket s
Ġr ake
Ġign ored
Ġt ucked
Ġlawy er
Ġcho ice
i ved
Ġhop es
Ġatt ach
Ġcoat s
Ġcand les
Ġfollow s
Ġkiss es
Ġapp ro
Ġclass room
ĠR u
e ve
r ing
Ġpudd les
Ġeas ily
Ġap art
et y
s it
Ġdisapp ear
Ġbee f
Ġchair s
Ġburn ed
Ġb other
Ġlet ting
Ġstra ight
ĠN ext
eter in
eterin arian
Ġy ield
Ġwar d
Ġdress ed
Ġcan e
Ġtrust ed
Ġlangu age
Ġs izes
Ġv eterinarian
Ġra z
Ġtele ph
ra ged
Ġcar ing
Ġplan es
Ġward robe
Ġjewel ry
at ched
Ġbl inked
id ay
Ġshow er
Ġr ise
A nn
Ġmiss ile
ĠS u
Ġkeep ing
Ġla wn
Ġre qu
Ġst able
Ġcabin et
Ġcross ed
Ġo ak
ĠH arry
Ġbooks he
v ision
M andy
Ġst ro
Ġteleph one
Ġnewspap er
m end
Ġcl aws
Ġroom s
r s
Ġs igh
Ġpuzz les
Ġa ut
Ġtr ade
Ġinc re
iv al
Ġc ell
Ġwhisp er
Ġtorn ado
Ġscr atch
un a
ang es
Ġbook case
Ġin f
amp oo
Ġblueber ries
Ġsn ap
Ġamaz ement
ĠM iss
Ġper fu
ct ion
om mend
Ġsqu eezed
Ġbookshe lf
B ecause
Ġrec ommend
Ġop era
ĠR osie
Ġsub way
Ġp ra
at ie
Ġg ym
Ġdel ay
Ġgr ill
ĠS ee
ĠA b
Ġraz or
Ġbl ouse
Ġrequ est
Ġcraw ling
ĠHe lp
Ġp ur
Ġpo ked
âĤ¬ .
Ġtele vision
Ġb ill
Ġho l
gg y
Ġfollow ing
om es
ict ion
Ġsh ampoo
ĠTr ue
Ġf ile
Ġli cks
Ġsp ear
Ġsqu eeze
Ġhol iday
Ġexper ience
Ġl umber
Ġimpro ve
Ġmin t
Ġperfu me
Ġser ve
Ġde mand
Ġste am
Ġcl iff
Ġring ing
Ġcr ow
fort unately
iction ary
I s
bb ie
Ġribb on
a h
Ġim mediately
Ġhelp er
Ġmuff in
Ġf est
Ġgrow led
Ġis n
Ġbe gged
Ġd ictionary
Ġmat ches
Ġshr ink
Ġwas te
Ġbl ood
Ġbird c
Ġpr op
Ġide as
Ġwarm th
i b
Ġmust ache
Ġsn eeze
ore s
ĠJ ul
Ġinv ite
h ic
Ġg ear
Ġbirdc age
Ġve hic
up s
Ġfu el
Ġal right
Ġrabbit s
uck ily
as is
Ġca lend
Ġwe ep
Ġy ucky
Ġflut ter
Ġinst r
Ġfall en
Ġmar ried
ĠR e
Ġber ry
l ier
Ġra il
Ġr ow
Ġpast ry
D id
Ġref re
uc ture
Ġworm s
Ġstr ucture
Ġlaug ht
Ġsurpr ises
Ġbrave ly
Ġbel ow
Ġcalend ar
Ġo asis
ĠCl ara
Ġwander ed
Ġb le
W ill
Ġw igg
Ġkne el
is ing
Ġd ire
Ġunderstand ing
Ġhurt ing
Ġlaught er
omed ay
Ġdra in
Ġp ages
O k
Ġheart s
Ġent er
Ġair pl
ink y
Ġit em
ĠI s
om ob
Ġhar b
Ġre aches
Ġap ron
as p
Ġsaf ety
Ġflo at
Ġcra sh
Ġaut omob
Ġbat he
Ġbu ried
Ġj unk
Åĵ No
Ġbuck le
Ġadm ir
Ġro ot
Ġcap tain
Ġstrawber ries
Ġmy self
ache l
Ġrelax ed
Ġsandcast le
or al
Ġign ore
Ġskill s
W elcome
Ġpl ates
L isa
' ve
Ġwh ip
ĠK ing
Ġsp ade
Ġmoment s
ĠF o
Ġrever se
ht ray
ĠW ho
ic ing
Ġqu iz
Ġas htray
Ġfest ival
ar i
Ġbe amed
' .
Ġsn apped
r iger
Ġs omeday
c akes
Ġref riger
Ġra ise
Ġrece ived
Y uck
Ġrefriger ator
Ġear lier
Ġto ng
Ġli c
ĠFr eddy
Ġwe ap
Ġv ac
Ġteach ing
Ġma ss
Ġharb or
ĠPe ople
Ġmod el
ĠSnow y
Ġspark ling
Ġspot s
ap ed
Ġinsist ed
Ġsa ving
Ġvan ished
Ġso cks
Ġbump ed
ĠIt s
Ġth umb
an na
Ġd ried
Ġsupp ly
iss ion
Ġblack board
ig ail
Ġprep are
Ġj ail
Ġjew els
Ġspend ing
Ġbal an
Ġscatter ed
ĠBe fore
x y
Ġto es
Ġsc ooped
Ġsett led
Ġperm ission
Ġspark le
Ġkn own
ct ly
Ġbreat he
Ġbo ot
Ġyawn ed
Ġre s
ĠM ay
W ith
am ber
ĠJ ames
Ġa chie
Ġdestroy ed
Ġbath robe
Ġte ase
Ġrem ain
Ġhard ly
Ġencou raged
Ġrepl ace
Ġwaff le
ant ly
Ġpr ide
Ġlemon ade
Ġd are
Ġha nger
Ġsit s
Ġpull ing
ĠH ave
Ġdecor ations
st ers
op s
Ġrem ove
P eter
Ġcudd led
Ġh ate
Ġd aisy
Ġlic ense
av id
Ġbean s
Ġs imp
Ġp ort
Ġresp ons
iz ard
Ġpra ised
s ing
re at
Ġchirp ing
Ġhit s
ent s
Ġe qu
Ġfast est
Ġsuff er
xt ure
Ġbuzz ing
Ġpatient ly
Ġdress es
Ġm ention
Ġble ed
s ity
Ġr hy
Ġautomob ile
n ies
Ġappreci ate
Ġpo ppy
Ġdest ination
Ġtall er
Ġm all
o sed
Ġh omes
Ġn ation
i um
Ġd igg
Ġfl av
Ġclimb s
Ġgu y
Ġwas hing
Ġp alm
Ġgl o
Ġsh ot
Ġlab el
Em ily
Ġbelie ved
Ġdigg ing
A ll
Ġappro ached
Ġhe sit
f ied
M mm
Ġn one
Ġto re
Ġdeep er
Ġw ine
Ġinf ant
u de
Ġrest ore
Ġsc ore
Ġher s
ĠT ina
r m
Ġm itten
Ġch amber
ĠO llie
Ġsaus age
Ġstrugg ling
Ġhe at
Ġdiffere n
Ġtong ue
Ġhill s
Ġhur ric
Ġpun ish
Ġpillow s
Ġbill board
Ġsn eezed
Ġsp ort
Ġw izard
ĠE ach
Ġup stairs
Ġthr illed
Ġprov ide
Ġbra in
Ġaw e
Ġdiscu ss
J ake
Ġpan ic
Ġwar ning
Ġtwist ed
Ġgl owed
Ġuniver se
Ġfire f
Ġthe rm
Ġvac ation
Ġwor se
Ġcr unch
Ġpo ison
Ġshe d
Ġsol ved
Ġpart s
os ity
ĠC o
be y
Ġe vent
Ġset ting
all en
Ġto ur
Ġrem ained
M ark
Ġairpl ane
Ġhurric ane
Ġtherm omet
Ġplay s
Ġexam ine
Ġspark les
Ġshoot ing
Ġinv it
Ġneighbor hood
Ġst y
Ġch ores
Ġor anges
Ġflo ated
Ġran ch
Ġch allen
ĠM aggie
th m
Ġweek s
Ġle ak
ĠEvery day
Ġuniver sity
Ġpaint s
Ġthermomet er
The se
Ġbit es
Ġrepe at
Ġb ang
ad ium
Ġflo ating
Ġfix ing
g ing
Ġmeas ured
S h
ĠBet sy
Ġst adium
Ġgrin ned
! '
d o
Ġd uring
!" ,
Ġsurround ed
Ġsupp osed
asp oon
Ġcon f
Ġrhy thm
Ġmass age
Ġbr ings
F l
Ġpa used
Ġcher ry
Ġgif ts
Ġf ut
Ġsprink les
Ġfa sc
Ġfut ure
Ġmem ory
ÅĵI Ã¢
Ġte aspoon
Ġgre y
r ise
Ġcollect ion
Ġsign s
J en
Ġmarble s
N ot
bble s
Ġj azz
W ould
Ġstom ach
ĠBu zz
em ember
Ġg ust
Ġwis dom
Ġact ually
Ġfl ood
Ġdisco very
Ġincl ud
Ġse w
Ġvehic le
Ġt ide
Ġl ily
Ġgirl s
Ġsun rise
ĠG ood
is hing
ĠL iz
v et
ÅĵThat Ã¢
Ġme owed
l s
Ġelephant s
Ġur ge
Ġexerc ise
Ġmail man
Ġl ugg
um ble
Ġdec ision
Ġchew ed
Ġr ush
Ġweap on
Ġstr ang
Ġobser ve
Ġlugg age
Ġun ite
Ġcartoon s
er o
Ġso re
Ġfasc in
Ġtomato es
i ers
Ġsc ur
Ġpo ssible
Ġto e
ĠL ater
all ow
c les
Ġsun light
it ies
Ġfold ed
Ġcur led
Ġ V
Ġchir ped
Ġr ust
Ġmelt ed
ĠRu by
Ġsp ill
Ġc akes
u ing
Ġs ip
Ġcollect ing
Ġ x
Ġgra pe
s on
ĠJo y
Ġminer al
e ed
ĠR achel
Ġbr us
Ġdifferen ce
Ġproblem s
Ġb ak
L e
Ġtrack s
Ġjo gging
Jo hnny
Ġwhere ver
ĠM e
Re ady
A l
Ġmountain s
ip ment
Ġb es
Ġslid ing
er ation
Ġman age
Ġequ ipment
et ch
Ġla id
Ġli ck
Ġadmir ing
Ġwater ed
c ious
Ġsat is
Ġcont ain
Ġbri cks
ĠSp ike
o ved
Ġtwig s
r r
ĠSome one
Ġpattern s
Ġkind ly
Ġpet ted
Ġsk ipping
Ġpotato es
Ġseat s
E x
b ers
Ġsold iers
Ġglo ves
Ġsp aces
z ag
joy ed
und ay
Ġrece ive
Ġkeep er
Ġco pper
Ġe mer
Ġsl ice
Ġlet s
Ġg ain
dd y
Ġcontin ue
Ġord ered
Ġstrang ers
w alk
Ġover joyed
Ġwat ches
Ġgot ten
Ġpig s
om as
Ġz ipped
m other
ĠS unday
Ġland s
Ġwhist ling
Ġg az
Ġbes ide
Åĵ Thank
Ġsaf ari
Ġbe g
Ġpray ed
ĠC at
S usie
Ġpe ered
Ġnet work
ĠSt eve
bb led
Ġsp it
Ġe ff
Ġinvit ation
Ġmarch ing
Ġour s
as es
Ġgl itter
ĠP enny
Ġwood en
Ġearth qu
Ġside walk
Ġeag le
ig zag
Ġdog gy
Ġdrink s
Ġgrocer y
ir p
Ġwe ight
Ġn avy
Ġacorn s
Ġatt ached
Ġra ised
Ġdisag reed
l oe
Ġwere n
Y um
ĠP oppy
ĠLet Ã¢
ĠM illy
Ġbe at
Ġcomp any
O uch
Ġm ister
Ġburn ing
f y
Ġon wards
he st
" ,
Ġw re
Ġhapp iest
ĠSp ark
M oral
Ġra cing
Ġbr id
Be fore
Ġcra shed
Ġspoon s
Ġf ed
Ġcrunch y
Ġpeanut s
Ġwhist led
ĠSh aring
Ġpri ce
se ek
Ġme ow
Ġhur ried
Ġhis t
Ġoff icer
ĠR a
Ġbri ck
Ġacc om
Ġtre mb
Ġrefre shed
Ġp ies
Ġrem em
Ġfl ap
Ġwork s
Ġcle aring
n ie
ĠS ad
Ġop eration
Ġprep ared
Ġbow ed
Ġscr atched
Ġremem bers
Ġhist ory
Ġex a
ad ed
Ġlip s
am b
Re ally
ĠK atie
Ġfirework s
Ġprun e
Åĵ We
Ġesc aped
R o
Ġdinosaur s
Ġmen u
ĠAb igail
Ġbrid ges
Ġtal ent
Ġplant ed
am ie
Ġbuild ings
Ġreve aled
Ġeas ier
Ġby e
Ġturn ing
Ġcom fy
Ġscream s
Ġol ive
Ġbra nd
ĠCh r
Ġ Qu
Ġhat ed
Ġc hat
Ġsell ing
Ġsnow ball
d ie
ĠL una
Ġrecogn ized
Ġwar n
Ġaccom pl
Ġcre pt
Ġpre cious
ĠZ oe
Ġland sc
omet hing
ĠF ro
Ġstri p
ĠN ot
Ġmu ddy
Ġpad d
Ġw id
Ġdr inking
Ġs ings
xy gen
Ġbed s
Ġpu pp
ect ure
Ġsett le
Ġearthqu ake
ĠM at
Ġsimp le
Ġeff ort
c c
ĠRe my
Ġremind er
Ġspaces hip
Ġmeas uring
Ġsl ip
Ġper ched
Ġl ecture
Ġb ones
Ġser ved
Ġapp ear
Ġwonder s
Ġshadow s
Ġwait s
Ġvo ices
Åĵ Can
Ġcudd le
Ġevery day
Ġped al
Ġp itch
Ġcomfort ed
Ġagre ement
Ġrespons ible
Ġcirc us
Ġrain ed
Ġve l
Ġo bey
ff ic
Ġv ict
Ġt ip
Ġso ared
Ġall ow
Ġany time
Ġtra pped
Ġc al
Ġwhat ever
Ġz igzag
Ġtast es
Ġapolog ize
Ġlandsc ape
Ġcut ting
Ġsucceed ed
Ġsho pping
Ġran g
Ġpet s
Ġsecret s
Ġvill ag
Ġfa sh
ĠD avid
Ġvel vet
Ġprin ter
Ġdisturb ed
Ġwa ist
Ġitem s
Ġswim s
Ġb un
Ġtra ffic
Ġpract icing
Ġste el
Ġbring ing
Ġoat s
Ġexa ctly
Ġsister s
Ġrest ed
Ġvisit ing
Ġsc oop
Ġact iv
L uckily
Ġcostum es
anna h
Ġansw ers
ĠFr ank
iz ing
Ġol ives
i en
m ble
Ġbr ushed
Ġsty le
Ġmouth s
ĠP r
Ġso ak
la ire
Ġcuri osity
is hes
Ġout do
n eath
Ġbre aking
Ġfash ion
ĠS unny
Ġre le
Ġown ed
Ġlady b
Ġencou rage
ĠN ut
Åĵ Don
Ġkn elt
Ġfascin ated
Ġle ather
m are
Ġim age
igg y
Ġvillag ers
om ing
Ġnail s
Ġben eath
ic orn
Ġunder ground
Ġwaff les
T weet
Ġun icorn
Ġsad ness
ent y
ter day
Ġunl ocked
ind a
Ġd ied
Ġrecogn ize
ĠIt Ã¢
Ġdown stairs
Ġcre ation
Ġcatch ing
ĠCh irp
Ġgrand mother
Ġo xygen
ist en
Ġmon sters
Ġtre mble
Ġche f
ĠJ e
Ġeat s
ĠThe se
Ġpup il
i k
Ġwant ing
Ġnight mare
Ġjo gged
Ġc ape
Ġstri pes
Ġdoctor s
Ġso aring
Ġblueber ry
le y
ĠHow ever
Ġstr uggled
Ġlem ons
ĠB eth
Ġwonder ing
Ġbleed ing
Ġpun ished
Ha ppy
Ġg ained
Ġfam il
ay la
d am
Ġf etch
ĠS omething
Ġexam ined
Ġn icer
Ġguess ed
Ġplan ned
Ġdra g
Ġc aut
Ġsit u
Ġmach ines
Ġmiss ion
F irst
Ġsteal ing
Ġarg ued
u ke
Ġare a
ĠF irst
Ġcomp le
Ġpil es
Ġs i
Ġherb s
Ġfree ze
Ġintrod uc
Ġstir ring
Ġr ipped
S ometimes
Ġs ix
Ġchallen ge
Ġt ugged
Ġstud ied
Ġfire men
U n
Ġbe nd
Ġb are
Ġwa gging
Ġzoom ing
O r
Ġaccident s
Ġvict ory
ĠO w
Ġsatis fied
Ġwre ck
ĠSu zy
Ġinstr uct
Ġprop erly
ag ull
Ġkey s
ul u
D ave
Ġwin ning
Ġshiver ing
ĠUn cle
loo king
Ġbun nies
Ġincre ase
u x
d ing
Ġgather ing
Ġtun e
Ġm ice
Ġex it
Ġfiref ight
Ġoutdo ors
Ġwin ner
Ġtwirl ing
Ġsl apped
Ġload ed
Ġte asing
Ġpe el
Ġdecor ated
ĠK e
ux u
Ġdes er
Ġsupp lies
Ġyell ing
Ġneighbour hood
Ġse agull
Ġunder neath
Ġperm it
Ġsight s
Ġtick ets
us an
Ġan n
Ġpan cakes
o h
Ġbeg in
Ġbur row
Ġpe arl
Ġrid es
Ġsi ren
Ġpe aches
ĠJ an
Ġmix ing
Ġrele ased
Ġdraw s
Ġwe ighed
ak y
Fl uffy
en a
ĠT w
Ġsne aked
ic a
ĠFl oppy
ind y
. '
Ġconf ident
Ġreal ize
Ġinstruct ions
Ġspid ers
Ġintrod uce
Ġl uxu
Ġd am
Ġmuff ins
s hing
L ola
Ġcont ro
C l
Ġlet Ã¢
Ġpin ched
Ġbu dge
Ġsol ut
Ġz ero
Ġcompetit ion
ĠL ucky
ĠJul ie
ĠNut ty
Ġprin ted
Ġstudy ing
B ella
Ġlo ving
Ġbeh a
Ġin ch
Ġpocket s
ĠCo co
Ġba ked
a les
Ġstr uck
Åĵ Look
ĠD id
ĠRa bbit
Ġshould ers
Ġb unch
Ġop in
Ġl ines
Ġfro sting
Ġre lease
Good bye
Ġdec ides
Ġgigg ling
Ġbro om
ĠL ike
Ġour selves
Ġwe b
Ġpast el
ll ed
ĠP ip
Ġstamp s
Ġcon es
n es
Ġemer gen
Åĵ Hello
Ġst air
Ġst itch
bb ing
G eorge
ĠO l
ĠSt op
Ġprun es
Ġladyb ug
Ġs ides
o ed
Ġgr ant
Ġscur ried
Ġstr ings
âĤ¬âĢ Ŀ
Ġt im
a is
Ġmark s
M ike
M r
Ġru ler
Ġpe ars
And y
g ers
T eddy
ed nes
ednes day
Ġrepe ated
Ġdri ft
Ġkeep s
Ġag o
Ġclap s
Ġpo king
ĠA m
ant a
Åĵ This
Y e
ay s
ĠB ig
Ġcrow d
ĠH op
Ġru in
Ġprin ts
k ins
l ow
Ġbrus hes
Ġkick ing
Ġstretch ing
Ġdemand ed
ĠTh omas
l en
Ġst ing
o dy
Ġneighb ors
Ġmention ed
ir a
Ġm ast
ow ers
Ġtouch ing
Ġto night
Ġprotect ed
ĠChirp y
Ġwr ites
Ġsweet ies
ĠJo sh
Ġgood night
ues day
Ġyou th
Ġbucket s
Ġribb ons
v a
j am
uct antly
ĠW ednesday
ti est
as hed
Ġpret tiest
ĠCh loe
Ġforg i
Ġv ent
Ġpar ked
ick y
ex p
Ġpro ject
Ġcamp ing
Ġso aked
z ie
ĠT iny
Ġbare ly
Ġhorn s
Ġboun cy
B obby
ick ed
b ies
M ar
ri age
A h
h ins
Ġdiscover ing
P ete
ĠA n
ĠB ir
E lla
ÅĵDon Ã¢
Ġ Once
Ġe ast
ĠS ure
Jo ey
Gra ndpa
Ġtwink ling
Ġres ult
Ġexp ect
Ġsurf ace
Ġsor ting
Ġd ent
Ġsto le
Åĵ Why
Ġw est
Ġintere st
Ġv owed
Ġte xture
Ġgaz ed
ĠG r
Ġpur red
ĠT uesday
Ġste ep
Ġguy s
Ġba bies
Ġsh ock
Ġbe ard
Ġmov ies
ĠC arl
ĠR ob
Ġcaut ious
exp ected
z en
Ġpow ers
Ġapplaud ed
Ġsil ence
F r
th ank
Ġpebble s
ĠBu bbles
Ġent ire
Ġloo se
Ġcontro l
Ġtick le
Ġgun s
Ġur ged
Ġdrag ons
Ġ 1
Ġact ed
Ġdra gged
Ġun expected
Ġluxu ry
ed ding
H enry
Ġcat ches
U h
as on
er n
Ġm ittens
Ġmus cles
Ġchew ing
Ġrock ing
Ġfl at
Ġfa b
Ġdolp hins
Ġcomple ted
Ġfab ric
Ġcurtain s
Ġemergen cy
M aggie
Ġbl ink
Ġintroduc ed
un e
Ġdire ction
u ly
Ġch ips
Ġhon k
Ġseas on
Ġpat ience
Ġstri ke
Ġimport ance
eez ing
Ġrel uctantly
Ġb ank
Ġe ight
Ġsl im
ust ed
Ġfig ured
Ġhig hest
Ġshiver ed
R emember
Ġfro zen
Ġlibr arian
ĠBet ty
Ġsolut ion
Ġcont est
Ġrock ed
Ġachie ve
Ġscream ing
Ġch ases
ĠZ oom
Ġrepl ac
Ġpour ing
R ex
Ġshel ves
Ġw ound
ĠJ amie
Ġtheir s
Ġcr umb
Ġrubb ing
es ome
Ġt i
Ġhug ging
Ġdri ves
Ġst aring
Ġsor ted
Ġsn ail
Ġro aring
Åĵ Oh
led ge
Ġincl ude
F red
Ġplan ets
ĠAnn e
Ġm ater
ĠS anta
Ġmater i
Ġsaf er
Ġpolice man
f it
Ġcur ly
Ġsitu ation
Ġfood s
Ġgre et
Ġaw esome
Ġcan Ã¢
Ġus ual
v in
Ġsigh s
Ġknow ledge
it ely
ir ts
Ġpass ing
Ġsh ined
Ġflag s
Ġex ha
Ġd ared
Ġbalan cing
Ġpl enty
Ġyou Ã¢
Ġmat ched
Ġtow els
Ġli ed
ul ts
Ġhome work
Le o
Ġout fit
th ough
Ġslim y
Ġbra very
ĠL ulu
Ġtr uly
Ġpretend s
ĠA unt
av i
Ġzoo keeper
ac ob
Ġcheer ing
Ġhe el
Ġw edding
ĠT illy
Ġgo als
Ġrainbow s
jam as
Ġsaus ages
J ames
cu se
ĠH oppy
Ġth reat
Ġaccompl ish
ĠMat t
D anny
ĠS usan
Ġpat ted
Ġca used
Ġpaint ings
ĠC laire
Ġreach ing
P aul
ĠC ar
Ġrest ing
Ġrad ishes
Ġarg uing
Ġpack ing
Ex cuse
.. .
ber t
Ġgrow ling
Ġbloom ing
ĠAl ways
Ġspray ing
Gra ce
Ġfo c
Ġwait er
Ġexha usted
i ar
Ġg e
Ġstrugg le
izz ie
a a
Ġsweet s
Ġstick ing
K itty
Ġp out
en ces
Ġmark ers
Ġmot ion
Ġwork er
Ġkneel ed
ĠJess ie
Ġpadd led
ĠL ou
Ġgrow l
Ġsl ed
im mer
Ġsu itc
Ġman e
ĠF or
Ġs way
Ġsn ugg
Ġstart led
ĠMom o
Ġcub es
Ġresc ued
Ġb oo
Ġsp ike
Ġwr itten
S ophie
Ġdust y
Ġtrave led
Ġinv iting
he llo
Ġexp ected
Ġbe ad
Ġsl ap
Ġcut s
Ġc ent
Ġbott les
Ġmatch ing
Ġgu est
Ġsing er
Ġflav or
Ġreve al
Ġlearn s
Ġhe av
le e
Ġprincess es
Ġcreat ing
Ġregret ted
Ġf art
Ġbloom ed
Ye ah
Ġtremb ling
Ġreplac ed
Ġf ir
Ġarri ve
Ġ Yes
Ġmar riage
y ou
p ite
Ġrecord ed
ais ies
Ġpencil s
Ann ie
Ġinclud ed
Ġla p
Ġch uck
Ġobser ved
Ġdisag ree
n joy
Ġd aisies
Ġpot s
ĠL inda
Ġactiv ities
Ġpray er
Ġfir m
Ġtim er
Ġpa jamas
Ch arlie
Ġroad s
Ġwire s
Ġrem oved
Ġdark ness
Ġwor ries
Ġus es
Ġvent ured
ĠM ad
Ġcountry side
Ġorgan izing
Ġst are
M rs
Ġcomplet ely
u zz
ĠB y
Ġwork ers
ĠH a
Ġopen ing
Ġfair ies
Ġrelie f
Ġwas ted
ang led
Ġle ap
Ġrep ly
Ġown ers
ĠA bby
Ġstore keeper
ĠB o
Ġc ott
Ġbe lly
ĠSad ly
ver s
Ġran ger
Ġfa ult
at y
Ġpart ic
ĠJohn son
Ġun f
ĠJ u
Ġquack ed
Ġpol ishing
Ġlead er
Ġst ern
or a
id ing
low ly
Ġbec oming
Ġfl ames
Ġl amb
ĠJe ff
Ġk ites
ct ions
Ġagre es
Ġpoem s
Ġpengu ins
Ġwasn Ã¢
After wards
Ġfa ced
ĠQu ack
ess ie
ĠO ut
Ġevery body
Ġsees aw
How ever
ĠP inky
Ġfold ing
Ġmelt ing
Ġsc ales
Ġsque aled
Ġth ro
Ġheal ed
Ġvan ish
ĠUn fortunately
Ġhelm ets
Ġw ink
ĠL uke
ĠB oth
Ġlo gs
ĠJ ones
ĠJen na
or ds
Ġcrab s
ĠĊ Ġ
Ġthro at
ĠM art
he ll
ĠLe ave
Ġus ually
Ġopin ion
Ġcrumb s
Ġtra ctor
Ġr ipe
Ġd ipped
op es
l ings
Ġsc ra
Ġseem s
Ġa st
Ġlollipop s
Ġtwink le
Ġc ash
Ġr isk
ĠChr ist
Ġteac hes
Ġcom m
ĠB ye
Ġgrocer ies
ĠFo llow
Ġd en
Ġknight s
H arry
i very
as m
Ġprov ided
Ġdent ist
Ġpol ished
Ġval ued
Ġstay ing
id s
ell e
Ġpee king
a ze
Ġsn akes
ĠA dam
Ġscr u
Ġinterest ed
Ġblow s
Ġrub s
ĠW atch
Ġcautious ly
ĠDo lly
Ġcrack ed
A lex
Ġr ings
Ġun ited
oph ia
ara way
ĠP ut
Ġf araway
Ġdes ert
ĠS orry
Ġwin ked
Ġmiss es
Ġprotect ing
Ġf reed
Ġmar ked
E llie
M ittens
Ġyou nger
Ġwr ist
Ġclos es
Ġwander ing
m as
Ġbalan ced
Ġchuck led
Ġfu zzy
Ġfore head
Ġlisten s
Ġpast ries
Ġsing le
ĠK ayla
Ġsign ed
g o
Ġro bb
ĠH annah
Ġbead s
Ġpartic ular
Ġro ses
b oo
Ġbo om
ĠFo x
A b
Ġact ions
Ġdire ctions
Ġhow ever
Åĵ Mommy
Ġcop y
ig i
ĠL izzy
ĠSu zie
Ġc ough
Ġsplas hes
Ġcrack ers
r ance
au ra
Ġbak er
Ġnap s
Ġc ous
pp ers
Ġro ots
Ġfill ing
Ġsnowball s
Ġyes terday
ÅĵWhat Ã¢
Ġrest ored
Ġflutter ed
Ġdel ivery
Ġroll s
ab el
ar ling
Ġst em
Ġcon n
Ġsw ooped
B ad
d ies
il es
Ġg aze
Ġsuitc ase
Ġwigg led
Un fortunately
Ġti pt
ĠN ina
il o
S andy
Ġsome body
ick ey
Ġb umpy
Ġitch y
bb ly
Ġref le
Ġsw irl
Ġsl am
ĠChrist mas
Ë ľ
Ġ Y
Ġphot os
âĤ¬ Ëľ
S ome
ol ine
Ġtw in
Ġpast els
Ġcelebr ation
Ġtrip s
Ġped als
ĠP ipp
at ches
Ġback ed
Ġtall est
Ġaw ake
ĠKe ep
Ġfro ze
Ġc ause
Ġcash ier
Ġne ct
Ġrem ote
Ġl ined
Ġdark er
Ġdeterm ination
Ġnect ar
il ity
Ġspe aking
Ġsec ure
or med
ĠDo ggy
ĠM any
Ġkne es
K ate
Ġw ow
ĠF riend
Ġp iggy
an es
Ġcomplain ing
Ġb ars
p er
Ġrecord ing
R un
Ġsneak y
Ġsil ent
Ġvide os
M ay
oy s
Ġheal th
Ġaccomplish ment
Ġli qu
Ġple asure
Ġact ing
?" ,
Ġent rance
Ġt y
ĠB ird
M illie
B un
Ġwe ars
Ġrock ets
Ġdeliver ed
Ġmil es
Ġg lee
Ġin sp
Ġh i
es mer
Ġcolour ed
Ġo pp
ĠPr in
Ġtri cked
ĠE njoy
Ġm esmer
ĠBe ing
se qu
bo at
Ġcheek s
ĠM o
y ond
Ġa ff
Ġbe yond
Ġafter wards
Ġno on
Ġs ib
Ġcon sequ
N ina
Ġhis sed
Ġstay s
c ited
Ġinsect s
Ġglass es
k y
Ġbowl s
T ime
um m
Ġjo king
R ose
To by
ĠNot hing
Ġso bbed
Ġtick led
Ġfart her
F ine
Ġcolor ed
Ġbur st
aff es
Ġsc aring
Ġsto len
Ġatt ack
Ġs ense
Ġsandcast les
Ġtrick y
Ġru le
Ġmask s
S ad
ar ter
Ġcover s
B l
ik i
Ġ ĠĊ
Ġde al
Ġgir affes
Ġinstr um
Åĵ Come
Ġcal med
Ġhand ful
? '
Ġtalent ed
ĠSpark y
Ġp ause
Ġt angled
Ġind eed
are n
Ġadd ing
Ġsm arter
Ġscar ves
Ġcand ies
th s
ĠJess ica
Ġl ung
Ġsh irts
Ġachie ved
Ġcho ices
P olly
Ġconsequ ences
Ġliqu id
o ssible
L illy
Ġyour selves
ri ous
Ġbeh avi
Ġlead ing
Ġbump s
Ġread s
Ġbatter ies
ig ers
ch oo
Ġhesit ated
Ġimp ossible
Ġbad ge
ĠT ara
ĠM on
ep t
Ġm i
Ġpad dle
Ġmi xture
Ġexplore rs
ĠTw o
Ġd arling
il ed
Ġmagn ets
ll ing
ĠM el
ou ch
Ġclown s
Ġkick s
ĠG et
Ġrecommend ed
Sh h
an a
Ġweep ing
Ġgrace fully
n ers
Ġexper ien
ĠC indy
ĠL izzie
ĠJ on
Ġseas hell
Ġseek er
Ġbak ery
Ġfirefight ers
ang ing
ĠJul ia
Ġsal ty
v est
br ush
Ġimpro ved
W he
r ig
Th ose
Ġsw ept
M illy
at ul
co at
Ġdeser ve
Ġstro ked
ugg les
ĠP andy
Ġfl apping
Ġwip es
Ġbegin ning
Ġcompl ained
Ġmushroom s
ur ry
ĠJ acob
ĠE l
y an
Ġhid er
R u
ob ody
itc hes
ĠS que
ĠS qu
ĠM ickey
Ġste er
Ġknock s
Ġc ust
Ġth orn
Ġse ven
Ġcan s
ĠHa ppy
Ġte ased
Ġobject s
Ġpart ies
D ays
Åĵ Do
Ġtrave lled
Ġth ird
ĠL arry
ĠG igi
Ġhe aring
ĠPrin cess
Ġbase ment
Ġt igers
Ġcup cakes
Ġhor iz
Ġcl ick
ÅĵYou Ã¢
Ġfe ver
Ġsn uck
Ġhead ing
Ġsecond s
Ġd ots
Ġrain coat
t le
ĠSn uggles
Ġsib lings
Ġhoriz on
el ia
Ġsmile y
Ġperform ance
Ġcust om
ĠP l
Ġart ist
Ġhall way
n o
Ġbe am
Ġmark er
Ġsn atched
Ġlight er
Ġyell s
Ġjack ets
Ġdrum s
Ġflutter ing
ind r
ĠL ena
Åĵ Hi
an s
st ep
p are
ĠL uckily
Ġru ining
Ġgem s
Ġbed time
ig ning
Ġwouldn Ã¢
Ġra indr
Ġwe e
Ġne ither
Ġcon cer
Ġbuy ing
rig ued
Ġpupp ies
ĠS lowly
Ġlet t
d ri
ĠW ater
ĠWith out
Ġpay ing
Ġscru bbed
Ġcelebr ating
Ġfamil ies
Ġdoll house
Ġann oy
Åĵ Wow
Ġcream y
Ġlett uce
b and
Ġam ong
umb ling
Ġpeace fully
Ġriver s
Ġscr atches
Ġwra pping
Ġwid ened
Ġdrift ed
Ġwa dd
Bob o
Ġr umble
T ina
Ġtask s
at ur
iv ity
ad es
Ġtree house
Ġhid es
Ġw ins
Ġre pa
Ġbeha ved
c ers
Ġrust y
al ph
Ġplay ers
ĠEvery body
Ġwon Ã¢
ĠBu zzy
Ġl un
D an
ĠJ azz
a el
Ġcudd ly
immer ing
f all
Ġun s
Ġfa ct
oun ce
Ġarrow s
Ġreward ed
Ġwill ing
Ġl ower
Ġneed les
A n
Ġsour ce
Ġcreat ivity
Ġshr inking
Ġc or
Ġlo sing
Ġtemp er
Ġe ch
Ġrepa ired
Ġpass en
Ġfe ars
ie ce
Ġgrand pare
Ġinclud ing
Ġch oo
Ġtipt oed
it ched
T r
Ġcre ations
Ġta pped
ĠA bbie
Ġgrass y
Ġchef s
Cl ara
ong r
ĠGood bye
Ġde f
d ed
Ġminer als
j o
Ġsepar ated
ĠEm my
Ġsprink led
Ġr ising
Ġimag ining
ĠJ une
Ġgrant ed
ich ael
Ġch op
Ġa ud
Ġg ross
ĠR ock
Ġtem pt
he w
Ġare n
G reat
ĠL aura
ĠS ophia
Ġswims uit
ongr atul
im on
ĠZ ip
Ġt iss
Ġpan s
Ġl imes
ho g
Ġstom ped
Ġscrew dri
Ġc oup
Ġgra bbing
ĠP o
Ġpout ed
Ġback wards
Ġsp ong
it ude
Ġdecor ating
Åĵ My
Ġdam age
ish y
Ġhesit ant
Ġe arn
Ġprin ting
H ave
Ġpe ppers
Ġto dd
Ġst ung
Ġsquare s
Ġunpack ed
c l
ment s
Ġtr amp
nt il
Ġslow er
Ġcow b
Ġdi ving
Ġplan ning
Ġbel oved
Ġon ions
P at
Ġmateri als
Ġheav ier
Ġch ip
ĠJ ay
ĠOl ive
Ġgrow ls
Ġraindr ops
Ġwr ink
Ġm er
Ġpoin ty
ĠR emember
Ġsnow men
c ope
Ġsurround ings
Ġprom ises
Ġavo id
Ġscrewdri ver
W h
Me ow
Y ummy
Ġrec ipe
Ġaud ience
Ġsail boat
Ġcous in
Ġrust ling
Ġforgi ven
Ġneighb ours
Ġblock ing
Q ue
Ġcent er
ke nd
Ġsl ices
Ġgo bbled
ed s
Ġwip ing
Ġwee kend
Ġtemper ature
Ġto uc
B ill
Ġhedge hog
Ġtramp oline
Que en
in t
Ġre fu
Ġar r
Ġhelp ers
Ġwo bbled
Ġr ip
Ġwind y
F or
K atie
p r
y es
Ġcoup le
Ġst ool
Ġdiscu ssed
a e
us hing
ĠP am
st y
F o
Ġdesign ed
ĠE arth
Ġornament s
Ġdream t
O ops
itt ed
Ġno ses
Ġcorn ers
ĠSt ella
ĠE ls
ch ild
Ġpe cked
Ġslam med
e al
u zzy
un ched
Ġswan s
Ġaff ord
ile y
Ġh us
E w
Ro ar
ĠR obby
Ġfe ast
Ġsport s
Ġh itting
o ey
Ġag e
ĠD r
Ġstreet s
ab ly
Ġwa g
Ġtiss ue
Ġdad s
Ġac he
Ġas ide
ĠM ira
cc oon
Ġra ccoon
Ġspong e
Ġst ain
Ġrequest ed
Ġme als
Ġcurious ly
Ġfork s
Ġsunfl owers
Ġrefle ction
Ġsnow fl
ar row
Ġwarn ings
Ġtail s
B aby
ĠN ick
Ġdan ces
Ġpret t
Ġplan s
J ul
Ġbow s
id o
Ġvan illa
Ġshap ed
Ġfamil iar
ĠB inky
Ġspark s
Ġd et
ĠRo bert
- -
ck y
Ġg ri
Ġlean ing
Ġdoll ars
F in
Ġcolor ing
Ġremember ing
Ġad ult
Ġbreat hed
Ġint rigued
Ġgreet ed
Ġsa le
Ġscrew s
us ing
Ġgrand child
n e
it ion
Ġduck ling
Mar ia
Ġforget s
Ġspread ing
os en
Ġgas p
ĠS c
Ġch osen
Ġast ron
Ġthr own
Ġshop s
P e
ĠB ee
ĠTh ose
Ġprett ier
Ġtw ice
Ġpray ing
ĠR yan
Ġtunn els
S urpr
ĠGr anny
ak er
Ġh our
Ġpot ion
ĠT ess
Ġenthus i
ll en
Ġtouc hes
Ġastron aut
Ġsw ords
Ġ Queen
Ġenthusi asm
Ġhus band
ara c
Ġsail ors
ert ain
Bl ue
Ġgarden er
ott en
Ġm oo
end y
W oof
Ġhop s
Ġz ipping
Ġsp ikes
Ġsuperhero es
Ġcor re
Ġre ason
B oo
Ġmagic ian
Ġwis hing
Ġd aring
Ġspoon ful
Ġgrandpare nts
m allow
Ġle ast
ĠBlue y
Ġm arsh
Ġsk unk
Ġre ass
ĠThank s
ĠO ur
Ġch anging
Ġdo d
ĠN obody
Ġborrow ed
Ġsc amp
Ġcount s
Ġp ens
Ġfl ight
Ġforget ting
Ġr otten
ĠChr is
Ġbo dies
Ġencou rag
Ġflav ors
Ġguest s
Ġ1 0
Ġhope ful
ent ly
Ġne are
ĠAb i
Ġw oof
ĠFin n
oun ced
Ġsnugg le
Ġmesmer ized
Ġsend ing
ĠFriend s
f ly
Ġhero es
Ġch arac
Ġcharac ter
Ġmus cle
st ick
ĠRo ver
on i
ĠM ilo
Ġbuzz ed
Fr ank
ĠSque aky
Ġsea w
Ġneat ly
Ġgrow s
O ur
t he
ĠC ra
Whe e
ĠMike y
w k
Ġwrap s
Ġste ady
Ru by
Ġpo ss
Ġn ibb
Ġfeed ing
ĠU ntil
Ġmarsh mallow
ĠL isten
Ġhands ome
Ġco nd
Ġmin ts
ir rel
Ġdeliver ing
Ġn ine
Ġo h
ant ha
Ġdi ved
bb a
Ġpol itely
Ġzebra s
M iss
T w
Ġon ward
Ġal ien
Ġsuffer ing
Ġnap kins
Ġwarm er
ar mer
ye ars
Ġsn eezing
Ġbath s
Ġhon ked
Ġpl ain
op sy
Ġde fe
Ġpl ucked
Ġcra shing
Tweet y
Ġmatter s
Ġembarra ss
Ġpo ster
ect ion
Ġthat Ã¢
me al
Ġlift s
B y
Ġrefre shing
Åĵ Mom
Ġuns ure
Ġseaw eed
Ġlun gs
ĠBir thday
Ġstud ents
Ġincre ased
ĠJu dy
Ġcre w
Ġjoin ing
Ġstand s
Ġtodd ler
Ġoat meal
ĠE x
ĠMart ha
Ġsc en
all owed
Ġprop er
Ġprep aring
Ġsw allowed
Ġd ip
Ġgl ued
Ġthu d
Åĵ But
Ġexp ress
Ġwhisp ers
Ġresp ond
S u
Ġwater ing
ast er
Ġam ount
Ġd ie
Ġr opes
ĠSt ar
Ġperf ormed
Ġtoast er
Ġstar fish
ĠH oot
Ġlead s
Ġtremb led
Ġpress es
Ġwo bbly
Ġtriang les
Sad ly
Ġha wk
Ġlesson s
Ġcush ions
Ġbit ing
w hile
Ġpost man
Ġge ese
Åĵ Well
Ġdan cers
Ġpop s
N emo
Ġpu ff
Ġtalk s
Ġsniff s
Ġresist ed
Ġfoc used
Ġscra ped
Ġm erry
B ack
Ġbu lly
Ġad ults
Ġpan icked
Ġcon fl
Ġr ushing
Ġneckl aces
Ġfreed om
v ant
Ġfl as
ĠMay a
Ġpupp et
Ġso fter
Ġsl ips
ĠK iki
Ġfirm ly
Ġwadd led
Ġtr ot
ion a
D ucky
ad os
Ġjoy ful
Ġfiref ly
Ġencourag ing
Ġtest ed
Ġwr igg
Ġdro pping
ĠS un
Åĵ Where
Ġdraw ers
Ġfrown ing
on na
B r
Ġtable s
Ġwater fall
Ġwor n
Ġwigg le
f ia
ĠZ oey
Ġe v
Ġbl ast
Ġnervous ly
Ġf aded
re y
Ġlift ing
b ird
Ġscamp ered
Ġr out
Ġdriver s
Ġhuman s
V ery
i ppy
le ts
Ġsp at
Ġexpl o
c ake
ĠOn ly
M imi
Ġappreci ation
Ġp ours
Ġfirefight er
Ġrobb er
Ġdra wn
Ġsque ak
Ġthought s
Ġpen nies
Ġrespect ed
Ġquarrel ing
Ġpige ons
Ġthrough out
Ġtwink led
Ġleap t
ret ty
B et
Ġo cc
ĠAl ong
Ġstack ed
ĠL ove
b ut
Ġdress er
ĠThat Ã¢
rr r
ĠFro sty
Ġsc ient
Ġfit s
Ġco c
ĠSt ay
ĠJan ie
Ġmast er
Ġscient ist
an while
ro ken
n ow
L isten
e ars
Ġbra vest
Ġavoc ados
Ġover come
Ġstrong est
Ġmon ths
Ġel f
Ġpol ar
Ġplay time
Ġsa n
ĠB aa
Ġnot es
Ġg onna
ĠAs h
ĠTo dd
f ire
Ġn ur
Ġc ertain
ĠT ake
Ġman ag
T ony
Ġwe pt
ĠMe g
Ġn ood
M ine
Ġm unch
Ġsp ins
Ġsc ored
Ġcold er
Ġech oed
b age
e el
Ġco sy
Ġcon vers
Ġwa kes
ĠSqu irrel
ĠMar ie
Ġgar bage
Ġplay room
Ċ Ċ
Ġdesign s
Ġperform ing
ĠFro g
pl ash
eez es
u rious
Ġpe ck
Ġpr ob
Ġsan k
Ġfl own
ĠSad ie
Ġtri cycle
c a
ĠF ido
Ġsweet est
Ġpro ve
Ġforgi ving
Ġprob ably
Ġmarshmallow s
Ġg est
Ġbeha ving
L ike
c her
im ent
Ġpump kins
o ke
ĠJack y
ĠB essie
ry ing
Ġexplore r
Ġgu ide
p lease
Ġsqu eezing
Ġrobot s
Ġsa dd
Ġto ssed
ÅĵI f
Ġbl inking
ĠQu ick
bb ling
Ġca using
K im
Ġbell s
und red
.. ."
b roken
Ġsh own
Ġcobweb s
Åĵ Okay
es pite
am my
Ġsqu ishy
ĠC he
Ġsp ices
Ġhair d
M ad
ĠF ire
Ġpassen gers
Ġc ongratul
Ġcra ft
Ġt ies
fu s
Ġtight er
Ġheal ing
ĠZ ara
Ġm ate
Ġang els
? !"
Ġyield ed
ad ing
Ġrever sed
ild a
Ġp ound
D avid
Ġa imed
Fo llow
Ġn apping
ĠF armer
Qu ick
E ven
Ġgigg les
u pt
Ġnear ly
Ġpay s
ĠOw l
Ġoff ic
D uring
Ġun w
Ġdist ract
Ġk ittens
Ġinstrum ents
Ġwid er
ĠM ouse
Ġre un
m ates
ay ing
Ġsew ing
allow een
Ġt il
Ġn uzz
Ġdoor way
Ġconfl ict
Ġcl ues
ĠU nder
Ġappreci ated
Ġin j
Ġpaint brush
f ound
ĠS imon
Ġbrus hing
W atch
Ġc oug
Ġ 2
Ġsh oo
Ġgrand d
Ġact ion
Ġy um
Ġe ase
Ġload ing
Ġbr u
Ġpassport s
an cy
Ġcott age
on ies
Al right
ĠH alloween
ĠJack ie
Ġpath s
Ġheart broken
Ġa is
Ġblock ed
Ġmer ma
ĠM abel
Ġlay ing
J erry
Ġsl ipping
ĠL i
in o
Ġswe ep
Ġres ults
Ġan ger
Ġbel ts
Ġrepe ating
Ġp ins
Ġfigure s
Ġbit s
is c
Ġev il
Ġso aking
ant astic
ĠT una
ide y
Ġmail ed
Ġwith in
ast y
Ġtwist y
Ġtwist ing
ĠW ell
Ġsuff ered
Ġstro ll
ĠP atch
Ġt uck
Ġconn ected
ĠW endy
Ġpuzz led
P oppy
âĤ¬ ,
Ġshovel s
Ġbus es
ĠAl i
Ġaccompl ished
Ġdam aged
Ġnood les
Ġu nd
Ġcross ing
Ġh undred
ĠM ichael
ight ing
Ġbreat hing
Ġse ver
Ġlick ing
Ġbehavi or
Ġro ars
Ġsever al
Ġt ying
Ġshr ug
Ġrespons ib
Ġbrace lets
T ed
Ġsurf ing
Ġsurrender ed
Ġrisk s
Ġfin ishing
ĠR alph
Ġdes pite
Ġfle as
ĠAm elia
Ġtow ard
an ie
Åĵ Please
Ġenc ount
Ġswe at
Ġlend ing
d a
Ġstream ers
Ġhaird ress
Ġhum ming
Ġdef in
V room
by es
l ves
Ġsupport ed
Ġsh ady
Ġoy sters
Ġclean er
Ġqui eter
Ġaw oke
St eve
Ab igail
Ġgood byes
Ġwho se
When ever
Ġluck ily
ĠBu bba
ĠRo bbie
Åĵ Of
ĠR ay
Ġign oring
Ġst itches
Ġrain y
Surpr ise
T ake
ĠH oney
Ġr ather
Ġtable t
is ions
Ġp onies
Ġed ges
Ġcudd les
ĠFl opsy
ĠMad die
Ġf antastic
un ity
dd ing
ec ca
er k
Ġsl ither
Ġcloud y
Ġfrown s
en ing
Ġhand ing
Ġfin al
Ġsnowfl akes
pp ies
Ġsp ed
Ġdr own
ag ic
Ġel bow
Ġhairdress er
Ġcott on
ĠH olly
Ġthorn s
ĠBir dy
Ġdefin itely
Ġc oral
Ġrain s
i el
Ġgest ure
Ġk ings
Ġsmall est
Ġsur v
Ġs y
Ġremind ing
Ġwis ely
ĠF uzzy
Åĵ Now
c row
Ġbat tle
ĠB ecause
ĠG reen
Ġcorre ctly
Ġv ines
Ġdec isions
Ġdrive way
ĠU p
Ġs ou
on nie
ath y
Ġpeel ed
Ġnew found
H annah
Ġsque aked
w he
Ġcho pped
Ġshark s
Ġpri ck
Ġstud ent
Ġsn ort
Ġwar ri
Ġgrand son
Ġsymbol s
Ġwe eds
Ġsimp ly
Ġfis hes
h il
Ġ X
Tr ue
c ent
Ġband ages
a bby
Ġgrandd aughter
Ġwo bble
on se
Ġresp onse
Ġn asty
Ġex cept
ĠK aren
Ġexerc ises
Ġsto pping
step s
Ġt ar
ĠFred die
Ġocc as
A dam
Ġaf ar
Ġban ged
ĠRock y
Ġd arl
Ġn i
Be ep
Ġinsp ired
Ġdarl ings
f ather
Ġtravel s
Ġt ipped
Ġdisturb ing
Ġfill s
Ġmast erp
Ġl ent
Ġfl ipped
Åĵ Hey
Ġfoot steps
el ie
w orm
Ġped aled
l ine
Ġbird house
Ġwindows ill
Ġpur r
Ġspit s
Ġtrave lling
ĠPipp in
Ġship s
Ġcon vin
Ġpresent ed
Ġscare crow
ĠAl though
J amie
so l
Ġadd ress
Ġpunish ment
Th omas
Ġplant ing
Ġapolog ised
cited ly
m ered
Ġchocol ates
Ġant ic
eel ing
ĠW elcome
Ġforest s
ĠR uth
Ġsurf board
m s
Ġcongratul ated
ĠI m
dd ie
Ġarr anged
Ġbelie ving
ĠMe gan
Ġreass ured
Ġtrot ted
Ġreun ited
Ġno dding
Ġencourage ment
Ġche ers
Ġli es
Ġimag es
Ġpo ppies
Ġre app
Ġcamp fire
iz a
Ġsuit s
Ġbus iness
S ince
Ġcl erk
ĠSp idey
Ġtar get
ook y
ĠJo jo
Ġmar ve
Ġsail s
Ġmagn if
iss a
per ate
ut ter
Jo sh
Ġoffic ers
Ġterri fied
Ġbackpack s
mand a
ĠG ina
Ġgri p
Ġcover ing
Ġy el
Ġkn ots
Ġfoc us
Ġactiv ity
ĠA ng
ink le
Ġyel ped
Ġsurpr ising
Ġwrink led
Ġsmell ing
Ġexp ert
r is
Ġm ood
Ġmasterp iece
Ġd ep
ĠF ighting
ott e
Ġch anges
Ġconcer t
B unny
Ġch illy
Ġspill s
Ġspeed ing
id er
Ġtest ing
ĠSnow man
Ġtast ing
Ġbra ver
Ġple aded
Ġsniff ing
art led
ĠL ia
Ġcomfort ing
Ġdelay ed
Ġge ars
Ġ Okay
Ġcalm ly
w e
at s
ac le
J ess
ac les
ash a
Ġlab els
arl otte
Ġmerma id
M at
Ġsuggest ion
P enny
Ġaw are
ĠA ny
ĠR ain
Ġdiscuss ing
Ġst umble
M ira
Ġj ars
Ġsp ies
Ġbelong ings
Ġmis chie
Ġworry ing
Ġmagaz ines
Ġbother ing
fl ies
Ġcrown s
Ġart work
Ġal though
Ġunderstand s
Ġdisplay ed
ĠLou ise
Ġmischie vous
ail s
Ch loe
Ġp uck
ĠT ry
Ġadmir ation
Ġeffort s
sc reen
Ġbury ing
Ġhe ight
Ġfox es
em ma
Ġun fortunately
p en
Ġsa v
Ġrefu se
Ġsell er
Ġh oo
Ġbasket s
Ġtool box
ri er
Ġb uddy
ig hing
Ġb itten
ĠA lly
Ġexperien ced
Ġdec l
Ġb less
in ted
Ġqu e
v room
Ġdragon fly
ĠDave y
Ġvehic les
w ise
b ell
w hat
Ġpack ages
Ġdis c
Ġsol ving
Ġd ump
i bbit
ugg ing
Ġpand as
ĠW ally
Ġannoy ed
Ġt umbled
Ġmom ma
Ġme mb
ip es
atur day
Ġmemb ers
Ġseashell s
Ġfire s
Åĵ The
Ġpo sit
Ġwarm ly
Ġweal th
Ġnibb led
ĠS aturday
Ġsun screen
ĠSo fia
ĠW il
ain t
Ġpe as
Ġtre ated
B eth
Ġtrouble s
Ġsqu aw
Ġrot ting
ĠE va
K e
Ġsc ent
Ġmateri al
Åĵ Sure
Me anwhile
ĠFro ggy
A ny
Ġcon qu
Ġstom p
Ġgaz ing
Ġco ach
ĠK aty
Ġinsist ing
Ġunt ied
D ear
R achel
Ġdis o
Ġpray ers
ĠO ther
Ġenv iron
Ġpart ed
Ġconvers ation
ĠD ory
Qu ack
G et
J oy
a ver
Ġcoll ap
Ġencount ered
Ġjo ins
Ġloop s
Ġra ces
ĠP en
Ġsew ed
Ġs ill
Ġteacher s
Ġenviron ment
Ġscur rying
ĠSam antha
atter ed
Ġwhisper ing
Ġjo ked
Ġarg um
Ġpurp ose
ĠPipp a
Ġtil ted
Good night
Ġstor ed
Ġord ers
Ġlo ses
Ġex ch
ort unately
Ġhoop s
Ġgen ie
Ġcowb oy
pp a
Ġshe ets
Ġsp ooky
Ġtw eet
ĠFl o
ĠPe pper
ĠD uck
ĠDo g
Ġto ss
or der
Ġperm itted
air y
a ven
Ġquar re
e edy
u el
Ġa im
ong o
ĠF iona
Ġdiamond s
Ġscr am
Ġty pe
isc uit
Ġpupil s
Ġantic ip
Ġglitter ing
Ġtr ans
Ġque ens
Ġturt les
illi am
Ġbeam ing
Ġneare st
ĠD espite
Ġend s
ĠSnow ball
Ġtub es
Ġm aker
ig ger
Ġser vant
Åĵ See
Ġwh imp
Ġdon key
Ġvisit ors
Ġfilm s
A m
Ġspell s
Ġopp ort
Ġg ap
Ġunt ie
ĠH ope
Ġcle ared
Ġfin s
Ġstro ke
Ġr in
ĠAunt ie
ĠB ounce
R osie
Ġta pping
Ġopp os
Ġwas ting
Ġcustom ers
Ġnur ses
ust y
Ġpri z
Ġsw o
Ġsh all
Ġhunt ers
Ġg er
Ġconvin ced
Ġwound s
Ġswo llen
Ġgoat s
Ġswe aty
Ġdress ing
Ġslow ed
Ġdecl ared
Ġd ot
Ġexam ining
or ter
el ope
ĠB ow
Ġoppos ite
Ġcharacter s
C laire
il ities
Ġfa iled
ĠQuack ers
Ġtid ied
Ġtrans f
Ġgrand father
ac y
Ġwarri or
Ġforgiven ess
Ġstern ly
Ġgood ies
Ġguess ing
Ġlip stick
Ġpe ep
Ġyoung est
Ġscratch ing
Le ave
Ġseagull s
C ar
m ies
re st
Ġinch worm
ĠR os
Ġbeep ed
em pt
Ġmeow ing
ri an
St ay
Ġresc uing
Ann e
Ġthan king
Ġquestion ed
ĠH old
Ġatt empt
Ġscram bled
ri e
ĠYou Ã¢
Ġgr at
Ġdri pping
Ġb ou
ĠS plash
Ġtire s
ĠKe vin
Ġbou qu
e ven
Ġact ive
Ġst all
Ġfor m
Ġanticip ation
r ily
ĠM aisy
Ġpicnic s
Ġni bble
Al ways
Ġais le
Ġbl ond
Ġfloor s
Ġrespond ed
Ġresponsib ility
ĠS w
Ġsh in
Ġsm ashed
Ġattack ed
Ġmate y
L ena
Ġfor ce
iv ia
Ġexplain s
ĠE lly
Ġknock ing
Ġemer ged
Tweet ie
Ġobey ed
Ġdiscover ies
Ġgrat itude
Ġt ing
Ġin ter
Ġju d
Ġvi br
c ie
Ġre ly
Ġr ays
Ġzoom s
Ġdecor ation
ĠM ina
Ġman ners
Ġch arge
Ġclass mates
Tw o
Ġspr out
Ġs ens
Ġsn ug
Ġvisit s
Ġs igning
in nie
Ġsp y
Åĵ Who
Ġaeropl anes
Ġso ot
Ġgirl Ã¢
Ġtwist s
Ġsurv ive
eb ecca
y l
Ġve gg
Ġinst antly
m unk
and a
Jul ie
ipp ers
Ġlo c
Ġwigg ly
Ġse als
Ġsel f
Ġbreath s
Ġunw ra
Ġr amp
Ġr umbling
ĠEll e
h ind
a ct
ĠL ion
Ġbuck led
Ġbright est
Ġhe n
Ġshr unk
J e
Ġm unched
Ġbo nd
Ġbee h
Ġincre asing
s m
Ġsh immering
ath an
Ġpur rs
Ġmanag er
id ence
Ġdoor bell
Ġflap s
Ġearn ed
Ġchat ter
g ain
C indy
B ang
o c
oo king
ĠW oo
Some one
ch ing
Ġmove ments
Ġlow ered
ud ged
Ġsway ing
i ens
ĠJane y
itt ered
Ġal iens
Ġhon king
Ġcrack s
Fr eddy
Ġargum ent
ĠJ ax
ss ss
Ġchip munk
Ġdiso bey
ing er
Ġwho ever
Ġwind ing
R ob
rom ise
ĠL uc
Ġann ounced
umm ies
ĠSp eedy
Ġprevent ed
Ġbe aver
ĠJo an
Åĵ Good
ĠK elly
Ġr owed
ĠM ae
it s
Ġsw itched
Ġbat hing
l ied
Ġmosquito es
ĠMad dy
Ġtap ed
ĠT aking
st orm
R ed
b elle
Ġpo ses
os cope
Ġoffer ing
Ġsw ap
ĠSt itch
ĠJon ny
Ġnuzz led
Ġcon s
Ġprick ly
are t
fl owers
Ġsway ed
Ġst eth
Ġfl ips
ĠSt an
Ġdestro ying
Ġla pt
Ġdes igning
Ġmind s
Ġcare s
be e
Ġbad ger
Let Ã¢
Ġjob s
Ġdod ged
Ġgl immering
Ġrat s
Ġcrawl s
J essie
Ġwhist les
l o
Ġsm elt
Un cle
Ġcr ops
r ink
Ġbeauti fully
Ġobser ving
Ġdan gers
y d
Ġbe ating
Ġsh ines
Ġexplo ded
ĠBe cky
Ġkn ives
Ġmill ion
Ġscold s
Ġcheck out
Ġscoot ers
Ġstamp ed
Ġsnap s
ang le
Ġcustom er
ĠSp ring
Ġgener osity
lp h
Ġgro an
Ġde ed
Ġlangu ages
bo ards
Ġger ms
o or
Ġrec order
Ġh ike
Ġhonest y
Ġt ummies
Ġsteth oscope
Ġrobb ers
Ġclos ing
Ġpadd ling
Ġcoc oon
l t
ĠA r
Ġdrown ed
Ġha ven
Ġpl ug
Ġcl icked
Mom ma
Ġexpect ing
ab ra
ĠRe ady
Ġlapt op
er ing
ĠFin ny
O ut
ĠTr ust
B uddy
ĠRu dy
Ġrout ine
A bby
am ma
Ġsupp lied
Ġastronaut s
ĠS k
Ġexpl or
Ġdisappoin t
Ġvegg ies
Ġcour t
u lp
l or
oo sh
ĠSpark le
Ġde ars
Ġsteer ing
C o
ot ch
Ġtidy ing
Ġadd s
Ġcond uct
Ġbouqu et
ĠB ongo
Ġbeeh ive
Ġ ill
le st
Ġsc ulp
Ġunpack ing
Ġnovel s
ĠT ime
Åĵ Maybe
ara ble
Ġcup cake
ĠPo or
B ear
Ch oo
ĠB ad
Ġstat ues
Ġt in
it a
ĠS weet
udd les
Ġchat ted
Ġparticular ly
Ġremind s
ud o
p it
y ler
udo lph
ĠP hil
Ġshort s
N ice
Ġhard est
Ġca w
T oo
ĠE ddie
Ġstret ches
Ġappl ause
Ġhealth ier
r up
w ater
Ġwis er
Ġfloat s
H oney
Ġghost s
Ġconduct or
ĠDon Ã¢
A rrr
Ġstr um
ĠIs n
Ro bbie
Ġhe aven
Ġaw ful
Ġdoll ar
Ġpl ugged
ĠK ay
pr il
ĠT ammy
Ġwild flowers
ĠEls ie
Ġsc ri
Ġele ct
ĠC la
ident s
id night
Ġtr aded
Ġover head
ll as
Ġsqu ished
Ġwhat Ã¢
Ġcomb ed
Ġcar ries
ĠMom ma
Ġnest s
Ġopin ions
ĠRob o
ĠEls a
e aring
Ġsy rup
Ġf aint
Ġfascin ating
an ced
Ġsw allow
ĠJe an
Ġexperien ces
K aren
Ġspray s
Ġbe ast
au la
Ġumbre llas
om b
Ġcontain er
Ġ ouch
Ġk illed
Ġreturn ing
Ġbother ed
elie ve
at ive
r ough
Ġg all
ĠA va
Ġlo cks
Ġprov iding
f ive
ĠA manda
Ġset s
Ġflas hing
Ġsh orter
Ġex amp
Åĵ Ok
ĠRo ger
Ġsculp ture
Ġfl ashed
ch y
Ġche cks
Ġweap ons
ren ch
M art
ou raged
Yes terday
Ġte les
Ġte aring
Ġboun ces
or king
Ġhot ter
Ġtest s
ord inary
ĠCra bby
Ġdefe ated
S now
Ġpap a
Ġin ches
Ġgr umbled
Ġgl ided
Ġfarm ers
Ġsprink le
ĠN ever
Ġnight s
Ġscr ub
Ġfa ith
ĠCh arlotte
cc idents
T illy
ĠZ oomy
ĠDan iel
Ġbur nt
cent r
at ors
ĠS asha
Ġcon v
Ġteles cope
Ġsadd er
A unt
i ving
Åĵ Be
Ġcon centr
Ġtrust ing
Ġapplaud ing
Ġconf idence
ook s
Ġtw enty
Ġser ving
Ġelect ric
M on
Ġhis s
Ġconv ince
P apa
c ar
ess ion
ĠC le
Ġgarden s
Ġche ated
Ġ icing
end ed
l ers
âĤ¬ Â
Ġblue bird
Ġneck s
Ġburn s
Ġaw hile
Ġcryst als
B uzz
le phant
ĠHe len
ĠN ancy
ĠPat ty
Ġinse p
Ġcub s
Ġvisit or
ĠPe ppa
âĤ¬Â ¦
ĠS ay
Ġpet ting
Ġteam s
v y
Ġra ising
C he
Ġcollap sed
an ces
Ġcheck ing
Ġextra ordinary
K ids
Ġinsep arable
P l
P ut
Ġbl own
Ġdry er
Ġg oo
Ġforg ives
Ġsiren s
F riend
ĠCh ick
Ġty pes
Ġmunch ing
Ġsoap y
Ġmem ber
Ġexamp le
Ġb orn
Ġo dd
ĠA na
Ġgrass ho
Ġimag inary
Ġinstrum ent
Ġb iscuit
Ġn atur
Ġbehavi our
Ġpriz es
Ġplay d
ĠL ina
b u
Ġmeow s
J on
ri ck
Ġsing ers
Ġwa ded
Ġbicy cles
v al
ĠZ ero
Br own
E ach
Ġk it
Ġmom Ã¢
Ġcomp an
B u
ĠB ang
ĠE ric
sh aped
Ġspr ang
Ġwater s
ĠR udolph
Ġfl ick
Ġsal on
Ġpeep ed
Ġup side
Ġdo ck
Ġl im
ĠT erry
Ġfl ip
ĠF airy
Ġopport unity
ad abra
Ġatt itude
Ġexplor ation
Ġin vent
ĠI zzy
Ġtrave ling
ĠAsh ley
B oys
ow ing
Ġlong est
Ġconqu ered
L iz
Ġunl o
Ġexpress ion
Ġdistract ed
Ġh ood
ad ually
Ġsand y
b l
Ġbr ide
Ġreal izes
ĠG ary
Ġhunt ing
Ġcheap er
c adabra
Ġdeser ved
Ġ Ġ
Ġen em
Ġflow ing
Ġenem ies
Ġf et
Ġun able
Ġwrigg led
Ġtr igger
Ġpill s
Ġcoo lest
Ġsweat ers
Ġmom mies
ĠW illiam
ĠFrank ie
Ġfl ock
Ġeng ines
ĠA nt
Ġenvel opes
get ic
ĠL a
Ġotter s
ĠM agic
ĠP retty
Ġb omb
st r
Ġgu lp
Ġclear ly
ĠF el
Ġdisc ouraged
Ġbur ger
Ġrow s
ĠS mo
Ġswim mer
f ree
Ġwh ales
Su zy
whe l
Ġcl ip
Ġcomp ete
Ġreapp eared
er g
Ġchat ting
Ġ 5
Ġt ips
ou ched
Ġgrassho pper
Ġcount ries
Ġpass es
Ġgl ittered
Ġquack ing
end ing
Ġsomet ime
Ġrob in
j est
Ġth ump
ap tain
Ġover whel
o ver
Ġun co
ball s
Ġtor to
ic ate
Ġab ility
ĠD e
Ġpat ches
Ġannoy ing
o ff
Ġmatter ed
ĠSt ep
Ġspill ing
Ġdet ails
J acob
ĠM other
Ġenjoy able
Ġstrip s
ĠWoo ly
ing o
sh ip
ĠJ illy
Ġtorto ise
Ġcomm on
Ġfo nd
Ġcrowd ed
Ġwh ined
ĠM ake
Ġche at
Ġsince re
ĠAm ber
Ġgall op
it er
Ġtre as
Ġthick er
Ġrelax ing
Ġuniform s
Ġappro ach
Ġdo z
Ġsound ly
Ġsure ly
ĠZ ack
Ġyawn ing
Ġcompan ion
Ġcheer fully
Ġhang ers
ĠIm mediately
Ġmark ing
Ġcur l
O l
ĠSh ow
ĠEl iza
o ard
Wh iskers
st and
Ġsk ies
io let
ĠPr ince
ĠPen elope
ĠW igg
ĠC r
ĠC urious
Ġpro d
K ayla
Ġst ur
Ġfor med
Ġca fe
ĠOl ivia
ĠTess a
Ġbec omes
ĠN ana
Ġwhis k
Ġnatur al
G ina
ĠJ ason
Ġoutfit s
Ke ep
Ġwas hes
Ġbeet les
Ġtreas ured
Ġnot icing
ĠBo bbie
in ts
Ġj ugg
Ġab oard
Ġbu bbly
ĠN ice
Ġvibr ant
Ġrepair man
Ġsque aky
Ġairpl anes
O llie
b ur
Ġmo at
G r
ĠSpark les
Ġwe ighing
el vet
Ġmoon light
Ġsh allow
sh adow
ĠA ccidents
ĠMat ilda
asm ine
Ġback s
igg ie
Ġhaircut s
Ġmel ody
Ġch in
ugg y
Ġha b
In stead
Ġple as
ĠAng el
o le
ĠP ick
Ġswirl s
H old
Ġ Yum
ĠBut ter
Ġstorm s
Ġnewspap ers
Mat t
Ġch ill
Ġbu nd
Ġcomm un
Ġmug s
Ġhum med
Ġfreez ing
Ġblond e
and ra
Ġsn eezes
ho le
Ġmir acle
Ġer ase
ĠFo xy
Ġcowb oys
h ny
Ġde v
Ġmess es
fa ction
Ġpepper oni
ĠS ir
ĠD ino
ĠR ebecca
ĠTw inkle
F eeling
Ġsatis faction
Ġl ump
Ġcompl iment
Ġcal mer
Åĵ Yay
Ġsqu inted
ĠV room
ĠB onnie
ight y
end ant
ĠP in
Ġscatter ing
Ġbl ushed
B ig
Ġs ipped
Ġcl ue
ven ir
Ġsuccess fully
ĠFl ora
L ulu
ĠS e
ĠB rian
ro ll
Ġlea king
Ġsitu ations
Ġsou venir
Ġoccas ion
Ġjoy fully
Ġcoug hed
ĠShe lly
Ġmod els
Ġposit ive
' ,
B oth
ĠM idnight
ĠW o
Any time
Ġglitter y
w are
Ġmeat balls
H op
Ġsmart est
Ġbru ises
Z oom
im mered
Ġy umm
ĠG us
Ġweigh s
Ġan k
Ġexplain ing
Ġscen ery
ĠQuick ly
Ġloc al
Ġanswer ing
Ġtick ling
ĠWho ever
L uke
b ank
am il
if t
ĠGra nd
Z oe
ĠR icky
Ġsnow y
ĠO ink
Ġscare s
Ġunf air
Ġbur gers
Ġre wards
Ġpress ing
L izzy
Ġtal ents
Ġpinch ing
Ġsh attered
Ġwelc oming
amb oo
Bet ty
N ever
ĠHe llo
etch up
Ġposs ib
s ie
ĠS ky
Ġbulb s
Ġte ap
Ġreward ing
Ġhis ses
Ġclean s
b elt
Ġro ast
ĠJen n
Ġrubb ish
H mm
Ġb ound
Ġpant ry
il i
Bet sy
H E
Ġsc ow
is p
Ġrow ing
Ġtrap s
Ġpract ised
Ġcrocod iles
y le
ĠSt ri
Ġbin oc
Ġdig s
ĠSee ing
Ġteap ot
Ġint ently
Ġfor ts
sp e
Ġstur dy
sc otch
Brown ie
Ġmind ed
Ġgroan ed
ĠN e
ĠR ight
Ġpil ots
ĠPe ggy
ĠP et
ĠZ ee
Ġcell s
Ġmarve led
M abel
Ġre bu
Ġball er
C at
S usan
Ġto pp
ĠC ara
be ep
Ġseat belt
Ġtempt ed
se y
ĠR ich
ic ious
Ġhor ri
ĠT yler
ĠH o
T ara
Ġp ipes
Ġstuff ing
Ġang rily
amil iar
Ġk etchup
Ġfin ishes
Ġsand pit
Ġtun es
Ġapolog y
Ġbend s
Ġunf amiliar
ĠPl aying
a i
Ġfun n
Ġsmo king
ĠBe hind
Ġmic row
Ġbu bbling
Ġdoor step
Ġfire flies
Ġcro aked
m el
ĠB oo
Ġinv ites
ĠSt ill
B o
Ġtent acles
j ack
Ġgood ness
Ġlook out
Ġmeadow s
Ġener getic
ĠG ray
Ġmicrow ave
ĠB ess
Ġrun ner
! '.
ac ock
Ġsweet er
Ġt ugging
Ġcl ut
Ġshy ly
O pen
Ġemb ra
Ġchew s
ÅĵWe Ã¢
Ġspoil ing
Ah oy
Ġexch ange
ĠB elle
if i
u dy
Ġact s
Ġmess ages
Ġc ages
Ġste pping
Ġshr ank
ĠMel issa
l ish
r upt
ĠA pril
Ġwater mel
Ġstro lled
Ġoverwhel med
ĠS ince
Ġr ipp
Ġwe Ã¢
Ġmo ons
ump er
Ġl ar
Ġbo ards
Ġsl apping
Ġche ating
Ġprotect ion
F ro
Ġhesit ation
Je ff
A choo
Ġcaterpill ars
Ġcr isp
Ġj ets
ul ars
Ġob st
Ġgasp s
Ġdefe at
Ġl ull
Ġd ou
Ġcho pping
ĠV elvet
Ġinj u
B ee
ĠS uper
ĠSt artled
Ġpops ic
Ġ Oh
ot ion
sc ar
Ġconn ect
Ġf ade
ĠW illy
ĠC aptain
Ġunder water
Ġmel ons
Ġfo am
Ġast on
Ġbinoc ulars
Ġplay house
Ġall ey
ĠDo es
Ġdemand ing
Ġcertain ly
h ow
ĠAnd rew
k a
Ġ 4
Ġp ouch
ĠM oo
Ġs ection
Ġshare s
Ġcr ouched
Ġballer ina
Ġcher ish
Ġslither ed
Ġmon th
Ġfish y
ĠB ra
ra cadabra
Ġloyal ty
Ġb amboo
ĠL ooking
Ġdifferent ly
L izzie
ch ief
Ġgu ards
ĠBun Bun
Ġp ounced
Ġhop scotch
Ġr ips
ĠĊ Ċ
Ġpe acock
Ġtransf ormed
Ġre cess
ant ed
Ġmean ing
ĠCar la
Ġdisappoint ment
ĠT iger
Ġf ist
Ġriver bank
ic iest
Ġpro g
Ġunwra pped
D anger
Ġsqu eezes
Every day
Ġ icky
Ġland ing
Not hing
ĠLi am
Ġplayd ate
Ġr ack
ĠJo dy
Ġstore s
St ill
Ġcoo p
Ġank le
Ġpo kes
Ġra king
Ġsweet ly
Ġf ries
all ed
ĠO f
Ġcher ished
Ġer upt
Ġnightmare s
ĠE lephant
Ġam used
cy cles
ĠCh oo
Ġwhimp ered
o ss
Ġar rest
Ġn apped
Ġth ie
ir ing
ĠW in
ĠL ight
Ġsnort ed
sol ut
, '
r um
Ġthr ill
ĠN ora
ĠGra cie
Ġbird y
M ilo
ĠC andy
Ġteam work
Ġjud ges
L ia
ĠW ait
ĠWe Ã¢
ĠMon key
Su zie
Ġa ctor
ĠCla us
ĠS leep
ĠB ert
get s
ul f
Ġcricket s
ed ic
ĠB a
Ġbl ades
re nt
Åĵ How
Ġma jest
ĠR at
Ġthunder storm
Ġmay or
Ġcent re
P ip
Ġsho el
u se
Ġg ates
ĠB arry
ĠP er
Ġtick les
Ġinj ured
Ġwatermel on
Ġsa cks
ĠW he
Ġmyster ies
Ġgroup s
Ġthie ves
M other
R alph
Ġsty les
M oo
e my
Ġsn apping
ĠA gain
ro b
oth y
Ġmill er
Ġlumber jack
May a
Ġr oo
Ġste w
Ġlean s
ĠHoot ie
R a
Ġcream s
Ġtempt ation
Ġt ant
Åĵ A
Jul ia
is dom
ust er
Ġbo il
Ġen emy
Ġkey hole
Ġcond ition
ĠS l
Every thing
Ġintellig ence
Ġstructure s
Ġchoo sing
u ess
Ġsp are
Ġfrustr ation
t hat
ĠSh are
Ġhundred s
Ġd ing
Ġch arm
H urry
ter n
Ġru ff
Mad die
uct ion
Ġscen e
Ġwh ir
ĠRu fus
Mad dy
in ct
Ġaunt ie
amb i
hing s
Ġhe els
ĠJen nie
Ġseas ons
Ġbang ing
ig e
Ġswimsuit s
Ġsleep s
Ġsupport ing
ic est
our ed
ĠJo anna
Ġben ches
ĠM ine
Ġweak er
Ġcomput ers
Ġtant rum
B aa
Ġrebu ild
Ġle vel
Ġle vers
Ġtexture s
st antly
ĠL enny
Ġcommun icate
s ers
Ġb as
Ġn icest
Ġtr ading
ĠSun shine
Ġhis sing
un o
ly n
Ġbo ld
ĠBe ep
Ġwigg ling
spe ople
Ġtown speople
Ġelectric ity
Ġluck iest
Ġtim id
Ġshin ier
Ġl ush
Ġalong side
ĠBr uce
Ġd art
Ġpl o
Ġcl aw
Ġspe ars
Ġtrust y
Ġcam el
Ġexper iment
Wh ich
g ar
Ġst un
ĠAnna belle
ĠF ly
Ġwarm ed
Ġto t
re g
ĠC are
Ġgl isten
Ġtrust s
Ġpedal ing
Ġpr ank
Ġsoft ened
Ġthumb s
ĠLiz a
Ġh udd
ĠL ife
ere my
Ġmagnif ying
ĠRos a
u nder
Ġquarre led
p ect
Ġkneel ing
Ġmoo ed
T HE
ĠD ot
Ġfo ggy
Ġwh ine
Ġtooth brush
Ġrever sing
pr ints
Ġdisapp earing
ĠGo ld
Ġcop s
ĠM an
Ġsk irts
ĠV ery
Ġaston ished
Ġd a
Ġhar vest
C urious
ĠAn other
" !
P retty
m ie
ĠT e
ĠT ears
Ġwor st
ĠO uch
Ġguard ing
Ġknob s
Ex citedly
Ġbo iling
ĠL ots
Ġwr iter
orm ation
Mike y
Ġcons ider
Ġg room
Ġtop s
solut ely
Jack y
Ġfet ched
J an
Ġy elp
ĠF ish
Ġcontin uing
Ġcomp ared
N ick
ais ie
Ġba a
Ġconcer ned
c at
ra p
Ġmotor cycles
F ortunately
T ry
Ġold est
Ġun less
Ġcre ep
ĠT ree
Ġmagic ally
ĠOl iver
Ã ĥ
Ġreveal ing
Ġbow ing
Ġimpro ving
Ġsens ation
Åĵ Thanks
Ġkangaroo s
L inda
P r
i al
Ġcan v
Ġcup boards
Ġlull aby
b arrow
ĠH ar
Ġwheel barrow
Ġcudd ling
gu ard
ĠH urry
al a
Ġpe ak
Ġdoesn Ã¢
ĠPe ep
ĠChick ie
ot o
Ġown s
Ġbus hy
Ġpoison ous
k er
w en
ĠT re
ĠW as
Ġpo pping
ĠM ighty
Ġembarrass ing
ag ine
Ġbra ins
Ġcool ed
Ġjourney s
Ġw rench
Ġdisag re
Ġsoot hing
o st
Ġwh irl
in ny
om p
ur ity
Ġal oud
Ġguard ian
ĠW oof
Ġbl ade
Ġsho ots
Ġdry ing
ĠOut side
Ab racadabra
D eal
S lowly
w ell
Ġn arrow
ĠS al
Ġreal ise
ib ly
Ġsh h
Ġsneak s
Ġallow ing
Ġt roll
if er
Ġinvit ations
Ġa rom
Ġcoug hing
ĠF ifi
Åĵ Welcome
ĠM a
ĠMart in
ĠBird ie
Ġfa cing
Ġcourage ous
ik y
Ġcanv as
Ġfact s
ver ing
Ġall erg
ĠWhat Ã¢
Do es
ĠFel ix
Ġlar ger
og o
Ġmind ful
Pe ople
Ġd ashed
Ġdeep ly
Ġcrack er
cut ter
Ġsled s
Ġheav ily
Jess ica
Ġbu d
Ġmust ered
ĠLe ah
Ġpupp ets
Ġdis aster
Ġang rier
Ġneare r
ĠEx citedly
Ġs us
ĠA lf
ĠE d
Ġ- -
Ġcur rent
m ark
Ġso bbing
Ġwh oosh
Ġbloom s
Ġqu ilt
Ġcost s
Ġhonk s
S ophia
Re my
Ġinst inct
M ichael
ing ing
ĠB ambi
Ġdri p
ĠAfter wards
Ġcap s
J une
Ġkn it
Ġfore shadow
Jack ie
Ġmed als
Ġcous ins
Ġho llow
Ġcomple ting
ĠR iley
Ġcirc led
Ġshrug s
ĠE ver
Ġreal izing
Ġzip s
Ġproper ty
S unny
ĠB oun
Ġrepeat s
Ġscoop s
T iny
Ġh ips
Ġloud est
Ġthr one
Ġcontent ed
ĠI ce
Ġmo ld
Ġwo lves
Ġwarm est
Ġhang s
Ġrepair ing
Ġflas hes
Ġwh ipped
Ġdep art
as hes
Ġcop ied
Ġattempt s
Ġt ill
ell ing
ĠL u
Ġla va
Ġsk ate
Ġsec urity
Ġcoo perate
Ġliz ards
ĠMon a
Ġplo pped
L ou
Ġne cess
Ġop t
th is
ĠR avi
Ġ' '
col ored
ĠWil bur
Snow y
Ġwa king
an tern
Ġwind s
s a
Ġwood cutter
c ri
ĠM ath
Ġsp iky
Ġpo se
Ġsoon er
ĠG abby
Ġcut ter
Ġharm ony
Ex cited
Ġhe Ã¢
ĠCh uck
Ġachieve ment
Ġpres chool
Ġfoot prints
Ġflood ed
Ġdoz ed
ĠBr ad
Ġallow ance
Åĵ There
Ġgl ared
Ġfight s
Ġkay aking
Ġrail s
Ġpleas ant
Ġhudd led
Ġlunch time
Ġcal ming
Out side
Ġthe at
Ġman Ã¢
Ġincred ibly
Ġisn Ã¢
u ppy
Ġju iciest
Ġmind ing
ĠD eal
Ġta le
Åĵ OK
Ġtick ing
rr rr
Ġhoo ves
bb i
Ġbuild er
J anie
ĠTom orrow
em on
Ġgrate fully
J ump
t led
Ġc ig
Ġother wise
Åĵ Would
Ġperf or
Ġdisagre ement
Ġarom a
P am
per ately
ĠRain bow
Ġsw apped
Ġhat ched
Ġbell ies
Ġserious ly
Ġglisten ing
Ġj ing
Ġstro kes
Ġp urch
Ġbo oth
ĠC D
ĠC ook
Ġmove ment
rey a
Ġso da
ĠB uggy
Ġsh ave
Ġspring ing
ĠPe anut
Ġspeak s
F ire
ĠM ila
Ġro be
Ġgr ump
Ġchallen ges
Ġcig aret
ĠP aula
ĠIs ab
Ġtheat re
c us
Ġab solutely
Ġlife guard
Ġquack s
Ġweb s
h and
ĠD ay
ĠZ iggy
Ġhab it
Ġpossib ilities
p an
Ġload s
Ġinter rupt
Ġen ch
Ġadm it
Ġocean s
ic s
Ġpersist ence
im ents
Ġst alk
ss y
Ġgl anced
gg les
Sp ike
Ġsniff led
Jen na
on ed
Ġowl s
Dave y
ĠJ asmine
ĠJo se
Ġlast ed
Ġcap ture
Ġbump ing
Ġda ily
On ly
Ġex h
ber ry
Ġbat s
ic ent
ĠC ould
Ġsque al
Ġle ver
Ġmusician s
ĠJan et
s itter
Ġbat hed
Ġsus p
c r
Ġbl amed
ĠAll ie
Ġsmooth ly
ĠPat rick
Ġgo ggles
Ġho ot
Ġrin se
Mart ha
ĠSmo ke
ick ing
Ġstir s
ĠK en
Ġspring time
Ġimagination s
O oh
ĠH ug
Ġpo llen
ĠG inger
Ġdes perately
ian a
ĠYes terday
ĠD ra
us hes
Ġover fl
ĠTh rough
ĠO ver
Ġcaut ion
ap s
ap er
ĠJack Ã¢
Ġra cer
Ġflo ppy
ĠSt even
Ġdesk s
ĠRat ty
Ġstain s
Ġunco vered
Ġdo lly
Ġdec iding
ĠO scar
Ġnet s
Ġmesmer ised
Ġpassen ger
Ġpound s
j ust
og a
Ġspeak er
Al ong
Åĵ Are
Ġwra pper
Ġstack ing
Ġhook s
Ġfold s
Ch irp
Ġprog ress
Ġro amed
Ġpri v
Ġnecess ary
Ġch ili
Ġmess ed
Ġpro cess
m ate
Ġwa x
Ġf ulf
Ġcut est
Ġpil ed
Ġrecommend ation
Ġintroduc ing
Ġpark s
Ġhat ch
Ġener g
ĠM s
Ġvine gar
B ird
on est
Ġtr im
Ġdes perate
Ġcoo ed
Ġfool ed
Ġdisobey ed
ĠHo pper
Ġobedient ly
Ġamong st
er ts
on ut
ĠD uring
Ġpe cks
Ġbaby sitter
Ġant en
Ġmap s
Ġund one
Al though
Ye ars
S imon
Ġch amp
Ġkind er
Ġyumm iest
an i
Ġho vering
Ġcon fus
ĠTh umper
Ġchain s
Ġshoo ed
Ġconfus ion
r ons
Ġho ses
ĠO ff
Ġkiss ing
Ġdess erts
Ġmagnif icent
D olly
b ed
ic ally
ast e
Sam antha
Ġap rons
Ġpur ring
Ġallerg ic
Ġd edic
Ġclub s
Ġgulp ed
Ġd ate
Ġla ces
Ġallig ators
Ġdifferen ces
Ġwid ely
Ġcoc onut
M el
is bee
Ġham ster
Ġsle igh
Ġhadn Ã¢
Ġinstinct s
um ed
keep ers
L arry
Ġwa nna
Ġsw at
ĠT oto
ĠPin chy
a ith
m ers
Ġgreat est
ĠThank fully
Ġchar ged
Co co
Ġbund le
Ġexh ib
Ġc uc
Ġr ic
Ġunt angle
ĠMar ley
ĠLi bby
Ġsc ut
Ġun z
Ġrin sed
ĠM amma
Ġcomp romise
Ġscratch y
sh irt
Ġrefle ct
Ġsilent ly
Ġostri ches
Ġcomet s
C arl
ark y
Ġroll er
ĠJo die
Is n
Ġnibb ling
ell ow
Ġvalley s
Ġbo lt
Ġar my
Ġdog gie
Ġlunch box
Ġcloth s
s he
ĠJ ump
Ġag es
Ġhead ache
Ġdr ill
Ġperform ers
Ġtempt ing
Ġdep ths
Ġdo ves
Ġborrow ing
f orm
Ġha lves
am ing
Ġbl ur
Ġsn oring
Ġglad ly
Ġfil es
Ġcraft s
Ġcre ak
Ġsquir ted
ĠT ra
ĠP ink
Ġrock y
Ġba it
Ch ris
yd ia
M ina
Ġlearn er
ĠB uster
Ġmust n
ĠPat ches
Ġli f
Ġke en
us y
ĠG emma
ĠFl utter
ĠWh ich
Ġhipp os
Ġunf old
o ors
Ġl il
Ġg ummy
Ġsl urp
ace y
Ġind oors
Ġchallen ged
ĠOther wise
ĠS itting
Ġr iddle
ĠC athy
Ġconfident ly
id i
Ġhand y
Ġcro ak
Sad ie
Ġcl uck
Ġgr adually
Ġpizz as
g r
Ġsc re
Ġtown s
? !
l os
o f
Ġro yal
and el
Ġrot ted
Ġgoo ey
uff in
B less
imb o
ĠB er
ĠM oon
Ġsoft est
Ġdet ect
ĠWo lf
A w
ĠK yle
Ġlaw s
Ġshoel aces
ĠJo sie
Ġesc ap
I m
r ings
Ġst ings
Ġbl oss
ĠV iolet
Ġappear ance
Ġgallop ed
Ġtopp ings
e or
ĠB ooks
ĠJ es
ous y
ĠBr uno
ĠS ummer
or se
ĠCh ar
Ġflav our
ĠLight ning
Ġt iring
Åĵ Will
b el
ĠH i
Ġste ered
Ġsend s
O O
z ing
A bbie
Ġs inking
